<pad>	0
<s>	0
</s>	0
<unk>	0
.	-3.29418
,	-3.72268
의	-4.39938
▁	-4.81311
▁the	-4.91678
을	-4.92277
)	-4.95758
는	-4.96318
이	-4.97713
가	-5.00997
에	-5.02138
를	-5.13293
s	-5.30843
▁of	-5.42943
년	-5.44284
도	-5.46708
(	-5.47114
은	-5.47526
로	-5.52109
▁and	-5.64202
▁in	-5.72741
에서	-5.77388
▁수	-5.80797
▁있다	-5.85422
과	-5.86262
와	-5.87482
으로	-5.90237
▁(	-5.903
▁이	-5.90736
'	-5.91228
-	-6.00295
▁to	-6.01445
:	-6.02667
▁a	-6.02835
인	-6.05079
▁1	-6.06209
월	-6.06526
▁-	-6.11645
일	-6.12642
▁2	-6.13694
고	-6.14461
한	-6.25137
▁"	-6.32796
▁3	-6.33232
▁그	-6.37361
다	-6.47047
▁'	-6.48487
이다	-6.53112
▁있는	-6.55776
만	-6.56939
에게	-6.59597
▁The	-6.6102
"	-6.62508
▁was	-6.62671
▁한	-6.6441
▁한다	-6.68748
지	-6.70168
▁4	-6.71499
하는	-6.71592
나	-6.73277
기	-6.73706
▁:	-6.7504
하고	-6.77084
▁is	-6.819
▁때문에	-6.83693
▁5	-6.89009
▁for	-6.90181
할	-6.96347
/	-6.97094
▁as	-6.98249
▁중	-6.98697
서	-7.02474
▁by	-7.02815
▁on	-7.03131
해	-7.03297
▁더	-7.06087
▁with	-7.07873
시	-7.08754
▁때	-7.10919
자	-7.12455
▁6	-7.1637
▁이후	-7.16576
▁제	-7.17702
▁다른	-7.18278
면	-7.19043
대	-7.20161
까지	-7.20636
▁10	-7.2134
게	-7.21611
했다	-7.23121
▁후	-7.23771
라는	-7.25816
▁안	-7.26993
▁된다	-7.2849
▁등	-7.2854
!	-7.28664
▁7	-7.29607
▁from	-7.30303
▁하지만	-7.30931
라고	-7.3206
▁그리고	-7.32424
▁that	-7.32741
▁8	-7.33575
ed	-7.3411
하여	-7.35585
라	-7.35642
ing	-7.36089
▁같은	-7.36526
한다	-7.37909
2	-7.3818
▁at	-7.39575
들이	-7.40816
),	-7.42646
사	-7.42711
▁것	-7.43077
이나	-7.43799
에서는	-7.43849
▁하는	-7.44236
▁A	-7.44329
▁함께	-7.45295
▁경우	-7.45826
...	-7.46393
▁9	-7.46607
하게	-7.47398
스	-7.49528
▁할	-7.49671
수	-7.51207
▁In	-7.53031
▁전	-7.5336
야	-7.53639
▁다	-7.53765
된	-7.5395
▁위해	-7.55236
리	-7.57479
▁것이	-7.5749
▁것을	-7.57941
▁his	-7.58617
▁두	-7.58997
▁잘	-7.59052
화	-7.59509
▁또한	-7.59612
▁12	-7.60604
▁대한	-7.61182
e	-7.63025
회	-7.65018
▁가장	-7.66149
▁되었다	-7.66154
▁및	-7.66611
1	-7.66638
▁없다	-7.66994
성	-7.67064
d	-7.67336
며	-7.68854
어	-7.6962
▁《	-7.69763
▁다시	-7.70452
진	-7.71292
▁an	-7.71431
부	-7.72886
하며	-7.73154
▁없는	-7.73187
▁역	-7.73221
▁했다	-7.74345
아	-7.74381
주	-7.7536
▁것이다	-7.75582
▁11	-7.75812
▁he	-7.76027
이라는	-7.76868
명	-7.77821
》	-7.77865
상	-7.79031
▁것으로	-7.79183
차	-7.79326
?	-7.7937
▁–	-7.81514
적	-7.81684
▁시	-7.81997
하였다	-7.82475
장	-7.83117
▁모든	-7.83244
▁모두	-7.83502
;	-7.83598
하기	-7.84017
하지	-7.84196
전	-7.84369
해서	-7.84734
개	-7.84755
▁결국	-7.85507
동	-7.86611
지만	-7.86707
▁많이	-7.87001
들을	-7.87309
▁20	-7.88512
보다	-7.88612
제	-7.88738
▁그러나	-7.88795
er	-7.89189
▁다만	-7.89259
▁것은	-7.89428
▁큰	-7.89579
▁자신의	-7.89776
세	-7.90475
▁/	-7.90619
▁it	-7.90958
3	-7.91722
호	-7.91737
t	-7.91764
a	-7.92553
들은	-7.93221
▁S	-7.93378
▁당시	-7.93487
▁are	-7.93551
▁were	-7.93636
원	-7.93744
▁게임	-7.94075
▁보면	-7.94395
▁매우	-7.9455
▁오	-7.94761
처럼	-7.94949
S	-7.95125
에는	-7.95644
▁내	-7.95824
▁하고	-7.96444
m	-7.97032
▁있었다	-7.9731
▁따라	-7.98493
위	-7.98551
선	-7.98563
이라고	-7.9862
되었다	-7.98756
▁볼	-7.99026
되어	-7.99201
▁같이	-7.99568
던	-7.99685
▁which	-7.99686
▁신	-8.00399
▁be	-8.00623
데	-8.00699
▁영화	-8.00878
y	-8.01019
▁많은	-8.01102
▁~	-8.02032
▁선수	-8.02105
우	-8.0236
▁He	-8.0275
th	-8.02956
▁also	-8.03508
이며	-8.03653
미	-8.03719
오	-8.03986
니	-8.04217
들	-8.0451
▁B	-8.04765
▁게	-8.05104
▁된	-8.05205
형	-8.05651
조	-8.0596
적인	-8.06117
▁건	-8.06141
구	-8.06173
▁시즌	-8.06224
▁주	-8.06416
▁있으며	-8.07004
신	-8.07621
▁or	-8.07897
소	-8.08018
번	-8.08161
▁비	-8.08617
▁알	-8.08662
▁15	-8.08861
▁말	-8.09393
중	-8.09444
▁I	-8.10008
군	-8.10299
비	-8.11001
▁뒤	-8.11159
용	-8.11475
▁16	-8.12573
▁가	-8.12868
마	-8.12886
▁사실	-8.13091
▁아	-8.13648
▁아니라	-8.1407
▁모습을	-8.14071
ly	-8.1466
치	-8.14762
▁물론	-8.14801
▁대	-8.15139
노	-8.15217
▁거의	-8.15425
▁통해	-8.15705
▁바로	-8.15847
▁이런	-8.17208
하면	-8.17562
하면서	-8.17649
정	-8.18075
트	-8.18223
·	-8.18293
타	-8.18697
▁첫	-8.18734
분	-8.18769
▁일본	-8.18789
▁않고	-8.19078
▁역시	-8.19558
A	-8.2005
부터	-8.20723
▁특히	-8.20765
년에	-8.2105
▁아닌	-8.21214
되는	-8.21269
▁D	-8.21995
▁정도	-8.22901
이라	-8.23279
식	-8.23314
▁C	-8.23744
▁사	-8.23813
▁걸	-8.23906
▁K	-8.23975
▁해	-8.24052
▁고	-8.24246
C	-8.24444
▁had	-8.24682
거나	-8.25017
▁단	-8.25156
▁공격	-8.2594
▁has	-8.26158
산	-8.26252
보	-8.26284
▁이상	-8.26402
n	-8.26748
요	-8.26813
네	-8.26912
i	-8.27435
4	-8.27497
▁세	-8.27904
▁||	-8.27921
드	-8.28085
▁좋은	-8.28513
▁한국	-8.28567
▁17	-8.29018
▁않는	-8.29047
▁못	-8.29093
▁축구	-8.29337
▁M	-8.29766
▁또	-8.30455
코	-8.30553
▁first	-8.3066
면서	-8.30726
들의	-8.31039
무	-8.31193
▁인해	-8.31205
▁있는데	-8.31337
▁30	-8.315
."	-8.3155
▁나	-8.32043
급	-8.32261
al	-8.32487
하	-8.32759
▁장	-8.33249
▁구	-8.33344
es	-8.33889
▁달리	-8.33918
초	-8.33932
즈	-8.34021
된다	-8.34412
o	-8.34436
▁보인다	-8.34815
▁G	-8.3498
in	-8.35218
단	-8.35593
▁가지고	-8.35635
▁되는	-8.35699
▁지	-8.35816
▁않는다	-8.3604
▁현재	-8.36116
건	-8.36348
강	-8.36406
▁총	-8.36577
는데	-8.36639
▁있고	-8.36883
▁않은	-8.36938
▁|	-8.36978
▁정	-8.37553
▁수도	-8.3757
▁해당	-8.37582
~	-8.37632
▁정도로	-8.37661
▁F	-8.37945
B	-8.38389
▁It	-8.38461
▁T	-8.38494
▁보고	-8.3898
▁하나	-8.39023
▁2018	-8.39402
▁듯	-8.39469
에서도	-8.39523
역	-8.39627
▁사람	-8.3978
▁not	-8.39794
▁13	-8.3985
당	-8.39947
▁조	-8.40094
▁14	-8.40098
파	-8.4011
▁일	-8.40378
현	-8.40482
계	-8.40843
▁대해	-8.41016
였다	-8.4134
▁their	-8.41412
천	-8.41441
▁그냥	-8.41522
D	-8.41783
▁2020	-8.42531
▁미	-8.42825
토	-8.42985
포	-8.43179
▁2019	-8.43333
▁P	-8.434
▁여러	-8.43595
▁one	-8.43705
▁원	-8.4419
(...)	-8.4462
▁하다	-8.4485
▁2017	-8.45342
▁상당히	-8.45464
▁but	-8.45539
▁이를	-8.45669
카	-8.45752
▁약	-8.45916
했고	-8.45981
▁2016	-8.46071
모	-8.46243
▁18	-8.46298
▁반	-8.46402
▁who	-8.46475
▁높은	-8.46831
▁E	-8.4704
▁그의	-8.47264
에도	-8.47552
▁타	-8.477
▁되어	-8.47806
▁진	-8.47847
▁자	-8.47858
▁그대로	-8.47886
▁마	-8.47962
▁미국	-8.4814
▁its	-8.48308
영	-8.49014
▁[	-8.49125
이었다	-8.49196
인데	-8.49289
문	-8.49343
▁계속	-8.49345
란	-8.49388
바	-8.49454
▁것도	-8.49531
▁없이	-8.49619
유	-8.49742
5	-8.50012
키	-8.50088
▁링크	-8.50104
▁서	-8.50644
▁2015	-8.51029
▁의해	-8.51346
▁데	-8.51667
권	-8.51898
▁다음	-8.51909
▁<	-8.51953
경	-8.52134
+	-8.52371
▁이미	-8.5249
▁소	-8.52512
▁하	-8.52742
▁have	-8.52854
▁있을	-8.52991
▁등의	-8.53228
▁대신	-8.53259
▁양	-8.5336
▁될	-8.5337
루	-8.53458
▁this	-8.53587
▁이는	-8.54404
▁성	-8.54788
▁자신이	-8.54982
▁많다	-8.54993
▁즉	-8.55123
▁있던	-8.55155
▁#	-8.55258
▁무	-8.55308
▁대한민국의	-8.55311
▁본	-8.55579
▁모	-8.55727
되고	-8.56105
▁있지만	-8.56166
했던	-8.56349
하다	-8.56716
거	-8.56848
▁유	-8.56864
▁리	-8.57173
▁외부	-8.5721
▁날	-8.57381
▁바	-8.57399
]	-8.57444
▁적	-8.57533
레	-8.57587
▁일부	-8.5775
▁저	-8.5788
K	-8.57924
▁경우가	-8.58142
그	-8.58458
▁남자	-8.58585
▁위한	-8.58592
’	-8.5866
G	-8.58743
▁있어	-8.5879
▁사용	-8.58832
에선	-8.59238
▁19	-8.59326
▁New	-8.60013
▁그는	-8.60268
M	-8.60329
▁21	-8.60506
▁너무	-8.60595
▁American	-8.60682
▁2014	-8.60817
▁her	-8.60991
▁나오는	-8.61023
▁two	-8.61062
관	-8.61484
▁노	-8.61698
6	-8.62172
▁동안	-8.62221
점	-8.62226
승	-8.6232
▁크게	-8.62364
▁캐릭터	-8.62493
▁+	-8.63097
석	-8.63118
공	-8.63295
▁좀	-8.6354
▁R	-8.6355
국	-8.63622
간	-8.63795
이자	-8.63946
▁경기	-8.64025
▁그런	-8.64073
▁추가	-8.64189
▁&	-8.6442
실	-8.64537
▁직접	-8.64562
▁부	-8.64583
후	-8.65049
▁U	-8.66064
▁강	-8.6617
질	-8.66183
▁2010	-8.66875
여	-8.67024
재	-8.67209
▁나온다	-8.67224
엔	-8.67375
▁피	-8.6765
▁대한민국	-8.67988
안	-8.68179
▁이에	-8.68252
연	-8.68293
▁V	-8.68399
▁마지막	-8.68517
▁been	-8.68562
▁또는	-8.68793
▁팀	-8.68822
▁de	-8.69026
▁각	-8.69189
디	-8.69355
▁자기	-8.69402
하지만	-8.69581
▁우	-8.69632
P	-8.69796
▁도	-8.70086
히	-8.70134
▁편	-8.70168
▁말을	-8.70483
▁어느	-8.70717
▁배우	-8.70834
▁L	-8.70947
▁J	-8.71062
크	-8.71495
T	-8.7187
F	-8.71991
해야	-8.72039
러	-8.72103
▁시리즈	-8.72423
▁주로	-8.72623
일에	-8.72745
▁기	-8.7329
▁초	-8.73291
▁번	-8.73305
▁2012	-8.73467
▁after	-8.73621
▁줄	-8.73773
▁산	-8.73967
▁세계	-8.73987
▁실제로	-8.74019
▁상	-8.74101
▁2013	-8.74207
r	-8.74261
▁References	-8.7437
이고	-8.74402
I	-8.74745
▁H	-8.74924
▁아니다	-8.75038
판	-8.75055
이지만	-8.75084
▁나온	-8.75181
▁제대로	-8.75242
양	-8.75566
▁몇	-8.75695
피	-8.7571
▁전부	-8.75837
▁위	-8.75855
▁25	-8.7601
▁re	-8.76154
▁영	-8.76164
적으로	-8.76165
▁관련	-8.76328
▁김	-8.76456
E	-8.76885
k	-8.77031
▁거	-8.77132
▁자주	-8.77329
▁호	-8.77353
배	-8.77407
▁않았다	-8.77782
▁100	-8.77788
남	-8.77927
내	-8.78176
▁하지	-8.78247
▁전투	-8.78289
민	-8.78443
▁일반	-8.78465
병	-8.78516
▁2000	-8.78607
종	-8.78813
▁비해	-8.78919
▁적이	-8.78927
b	-8.78959
랑	-8.79065
▁서울	-8.79262
▁여자	-8.79272
프	-8.79529
7	-8.79612
방	-8.79748
▁등장	-8.79764
▁출신	-8.79814
▁때문이다	-8.79853
▁난	-8.79923
▁사람이	-8.79961
▁리그	-8.80452
반	-8.80673
▁선	-8.80878
될	-8.81007
▁2011	-8.81015
▁보	-8.81026
▁미국의	-8.81058
▁they	-8.81551
▁into	-8.8161
▁코	-8.81617
▁가진	-8.81636
▁스킬	-8.81679
▁참고로	-8.81776
▁개	-8.81997
▁온	-8.82362
▁방송	-8.82466
▁드라마	-8.82515
티	-8.82621
하자	-8.82636
▁문	-8.82795
▁등을	-8.82902
발	-8.83103
두	-8.83111
▁어떤	-8.83134
▁파	-8.83188
▁all	-8.83513
하던	-8.83617
c	-8.83642
▁other	-8.83726
와의	-8.83776
▁오히려	-8.83817
▁어	-8.84044
g	-8.84237
▁처음	-8.84396
▁작품	-8.84425
▁해도	-8.84655
▁재	-8.84694
▁라	-8.84725
▁있다는	-8.84972
▁24	-8.85028
px	-8.85074
▁이러한	-8.85092
▁time	-8.85198
▁W	-8.85281
▁박	-8.85525
다가	-8.85605
L	-8.85767
▁그런데	-8.8586
▁중국	-8.8633
▁있어서	-8.86514
▁하며	-8.86556
집	-8.86765
▁공식	-8.87231
법	-8.87237
▁새로운	-8.87296
–	-8.87399
st	-8.87448
교	-8.87501
물	-8.87555
세기	-8.87633
으며	-8.87658
준	-8.87791
▁되고	-8.87796
기도	-8.87824
테	-8.87891
더	-8.88056
▁over	-8.88874
en	-8.88946
저	-8.89112
▁사실상	-8.89181
▁이때	-8.89371
▁가능하다	-8.89443
▁좋다	-8.89448
▁아예	-8.89504
▁백	-8.89508
들과	-8.89561
학	-8.89709
▁차	-8.89783
기를	-8.90132
R	-8.90374
▁United	-8.90427
▁동	-8.90558
하거나	-8.90637
▁‘	-8.90853
▁현	-8.9095
왕	-8.91069
▁만든	-8.91199
체	-8.91201
▁원래	-8.91211
▁2006	-8.91418
▁동시에	-8.91431
▁2008	-8.91508
h	-8.91559
▁기본	-8.92132
▁있다고	-8.92215
▁먼저	-8.92227
or	-8.92344
▁N	-8.92369
▁물	-8.92563
▁상대	-8.92639
르	-8.92972
▁게다가	-8.92995
▁군	-8.93001
▁각주	-8.93172
▁→	-8.93223
▁등이	-8.93458
년대	-8.93577
태	-8.9368
▁불	-8.93694
츠	-8.93694
터	-8.93702
▁카드	-8.93766
9	-8.93879
▁명	-8.94295
▁이렇게	-8.94357
▁2009	-8.94499
▁지역	-8.94583
▁같다	-8.94628
했지만	-8.94635
re	-8.94939
▁발	-8.95061
▁네	-8.95085
▁완전히	-8.95091
▁X	-8.95235
f	-8.95275
▁22	-8.95519
man	-8.95795
▁하면	-8.9586
였던	-8.9596
W	-8.96027
▁people	-8.96055
창	-8.96095
=	-8.96235
▁남	-8.96246
운	-8.96297
▁인	-8.96362
▁비슷한	-8.96396
▁외	-8.9643
▁일이	-8.96535
되지	-8.96615
▁up	-8.96752
청	-8.96767
▁0	-8.96892
하는데	-8.96974
▁들어	-8.9701
▁카	-8.97218
▁알고	-8.97336
등	-8.97504
하기도	-8.97662
▁보통	-8.97906
の	-8.98054
x	-8.98147
▁when	-8.98266
▁공	-8.98436
었다	-8.98743
▁무기	-8.98807
▁그렇게	-8.99035
▁TV	-8.99168
▁증가	-8.99215
▁can	-8.99241
▁최대	-8.99302
▁그래도	-8.99365
지는	-8.99978
▁혹은	-9.00097
▁23	-9.00098
▁University	-9.00176
▁점	-9.00313
▁서로	-9.00508
▁플레이	-9.00653
▁그래서	-9.00658
▁포	-9.0071
▁프랑스	-9.0095
on	-9.00992
▁O	-9.01038
린	-9.01112
▁새	-9.01856
▁간	-9.02069
▁전에	-9.02121
했으며	-9.02149
▁more	-9.02229
ers	-9.02287
려	-9.0231
8	-9.02363
희	-9.02373
살	-9.02603
▁전혀	-9.02759
▁키	-9.02783
▁기술	-9.02969
▁이야기	-9.03094
▁시작	-9.03136
온	-9.0314
▁2007	-9.03357
p	-9.03424
화에서	-9.03686
▁보기	-9.03708
▁꽤	-9.03723
류	-9.03748
▁시간	-9.03749
탄	-9.03792
="	-9.03925
▁out	-9.03973
▁On	-9.03981
▁This	-9.04176
개의	-9.04253
생	-9.04257
▁만	-9.04324
▁배	-9.04456
▁방	-9.04722
▁연	-9.0493
메	-9.05068
길	-9.0512
▁문제	-9.05123
▁would	-9.05195
같은	-9.0528
쿠	-9.05371
▁당	-9.05404
긴	-9.05457
X	-9.05468
▁new	-9.05498
▁경	-9.05607
▁50	-9.05877
때	-9.05961
▁only	-9.06055
▁심지어	-9.06253
▁일단	-9.06359
us	-9.06382
an	-9.0643
N	-9.06438
▁만들어	-9.06521
▁years	-9.06672
V	-9.06771
백	-9.06905
▁사망	-9.07257
&	-9.07335
▁여성	-9.07368
금	-9.07697
▁별	-9.07778
▁받아	-9.07814
H	-9.07827
▁만큼	-9.07876
▁28	-9.07936
▁links	-9.08034
편	-9.08063
함	-9.08335
▁정말	-9.08393
광	-9.08401
▁대부분	-9.0844
▁she	-9.08609
▁채	-9.08633
▁있기	-9.08794
▁26	-9.08799
):	-9.08869
▁받고	-9.0889
z	-9.08973
브	-9.09038
▁때는	-9.09121
▁갈	-9.09155
▁자신을	-9.09176
▁야	-9.09292
▁“	-9.09483
▁참고	-9.09617
ic	-9.09619
대로	-9.09638
▁기준	-9.09792
▁삼	-9.09861
>	-9.10342
▁힘을	-9.10455
▁External	-9.10527
▁따라서	-9.10752
▁2004	-9.10841
▁왜	-9.1087
▁받은	-9.1087
박	-9.10894
▁때문	-9.11138
▁않다	-9.1116
▁문제가	-9.11216
▁하였다	-9.11276
▁2005	-9.113
▁따르면	-9.11597
▁일본의	-9.11673
▁에	-9.11689
본	-9.1173
이었던	-9.11771
덕	-9.11774
▁이름을	-9.11928
▁이동	-9.11999
▁during	-9.12018
▁27	-9.12025
▁No	-9.12501
▁편이다	-9.1255
▁했지만	-9.12711
▁시절	-9.12729
▁애니메이션	-9.12899
▁국가	-9.12933
음	-9.12934
▁him	-9.12982
▁about	-9.13052
O	-9.13281
직	-9.1363
▁스	-9.13638
순	-9.14034
▁where	-9.14046
▁덕분에	-9.14119
▁있게	-9.14187
▁존재	-9.14325
▁감독	-9.14345
든	-9.14452
l	-9.14501
난	-9.14958
▁매	-9.14973
와는	-9.15032
▁경우도	-9.15082
▁between	-9.15145
▁학교	-9.15226
론	-9.15244
했을	-9.15592
▁used	-9.15636
▁손	-9.15767
▁하는데	-9.15805
▁사용하는	-9.15836
봉	-9.15889
▁World	-9.15918
심	-9.1592
▁화	-9.16027
▁쓰는	-9.16114
10	-9.16235
▁style	-9.16253
철	-9.16512
로서	-9.1655
▁쓸	-9.16928
▁가지	-9.17
▁마찬가지로	-9.17062
▁여	-9.1718
▁토	-9.17251
▁마법	-9.17283
▁달	-9.17314
▁강화	-9.17391
▁그나마	-9.17411
▁오브	-9.1755
▁참조	-9.17922
▁왕	-9.17961
▁과거	-9.17965
▁아이	-9.18053
▁굉장히	-9.18337
▁둘	-9.18479
▁성우	-9.18503
▁음악	-9.18563
▁지원	-9.18595
▁인물	-9.18618
▁자체가	-9.18622
▁제작	-9.18649
▁players	-9.18673
▁못하고	-9.18748
▁없고	-9.18775
불	-9.18806
번째	-9.18854
▁시간이	-9.18905
▁사람들이	-9.18907
했는데	-9.18987
▁주요	-9.19176
▁로	-9.19196
복	-9.19249
▁아직	-9.19253
▁조금	-9.19345
▁연구	-9.19376
to	-9.19438
마다	-9.19444
▁해서	-9.19449
▁공격을	-9.19466
걸	-9.19603
▁States	-9.19631
▁출생	-9.19632
!"	-9.19718
예	-9.1982
▁three	-9.19866
곡	-9.19877
▁영상	-9.19955
The	-9.20097
▁기사	-9.20142
▁실제	-9.20222
u	-9.20238
▁가능성이	-9.20294
케	-9.20395
▁등장하는	-9.20547
달	-9.20619
▁강력한	-9.20946
시간	-9.21039
▁2002	-9.21078
▁천	-9.2109
명이	-9.21116
▁심	-9.2113
베	-9.21142
림	-9.21502
했으나	-9.21504
▁레	-9.21517
위를	-9.21541
▁St	-9.21622
감	-9.21751
▁노래	-9.22103
▁결과	-9.22152
▁못한	-9.22326
▁여전히	-9.22388
▁이어	-9.22503
경기	-9.22528
되었고	-9.22539
▁이전	-9.22555
이기도	-9.22562
▁29	-9.22606
주의	-9.22702
▁under	-9.23032
▁우승	-9.23141
▁most	-9.23249
투	-9.23615
▁번째	-9.23726
근	-9.23803
▁받았다	-9.23817
▁사건	-9.23874
▁진행	-9.24016
▁2003	-9.24142
▁이벤트	-9.24351
▁방어	-9.24635
▁레벨	-9.24643
▁있었던	-9.24703
▁가능한	-9.24715
과는	-9.24749
층	-9.24787
▁송	-9.24787
▁용	-9.24833
▁School	-9.24862
력	-9.25054
▁part	-9.25076
▁변경	-9.2519
하였고	-9.25198
▁쉽게	-9.25491
▁예	-9.25523
▁개발	-9.25526
▁열	-9.25714
▁어떻게	-9.25731
▁훨씬	-9.25744
▁엄청난	-9.25754
▁더욱	-9.25831
령	-9.25916
▁later	-9.2595
▁then	-9.26017
들에게	-9.26168
▁임	-9.26194
▁영국	-9.26319
이기	-9.26386
▁불구하고	-9.26522
▁치	-9.26691
▁영향을	-9.26759
▁가는	-9.26763
▁않아	-9.26895
▁없었다	-9.26902
년부터	-9.26903
▁아주	-9.27007
▁made	-9.27213
ar	-9.27415
▁Z	-9.27488
각	-9.27526
▁작은	-9.27535
0	-9.27585
▁40	-9.27618
패	-9.2763
버	-9.27794
▁than	-9.2782
▁속	-9.27994
▁사용할	-9.28008
▁such	-9.28042
le	-9.28116
▁상대로	-9.28306
▁다양한	-9.28465
ton	-9.28542
로부터	-9.28566
▁National	-9.28608
져	-9.2866
했다고	-9.28795
▁기록	-9.28934
▁후에	-9.29146
▁no	-9.29183
▁당연히	-9.29203
시켜	-9.29269
들도	-9.2928
▁홍	-9.29292
▁황	-9.29311
임	-9.29321
▁버스	-9.29403
▁강한	-9.29406
▁최고	-9.29623
▁금	-9.29637
▁known	-9.29713
▁발매	-9.29721
▁film	-9.29722
▁역할을	-9.29806
▁하자	-9.30089
▁FC	-9.30107
통	-9.30311
기에	-9.30393
▁주인공	-9.30457
▁준	-9.3056
ation	-9.30632
설	-9.30694
▁곡	-9.30948
▁there	-9.31044
▁살	-9.31112
목	-9.31155
▁기준으로	-9.31296
▁전쟁	-9.31364
▁각각	-9.31599
과의	-9.31695
▁you	-9.31757
▁some	-9.31761
▁없어	-9.31806
▁season	-9.31815
▁1990	-9.31895
맨	-9.31947
19	-9.31993
",	-9.32198
ion	-9.32286
행	-9.32481
기가	-9.32503
▁프로	-9.32525
▁역사	-9.32559
▁2001	-9.32572
▁존	-9.3259
▁생각	-9.32617
▁패	-9.32629
줄	-9.32667
▁등장한다	-9.32736
▁31	-9.32772
▁기존	-9.32805
▁것에	-9.33102
▁창	-9.33192
▁여기서	-9.33263
항	-9.33486
▁「	-9.33511
▁As	-9.33511
너	-9.33563
속	-9.33563
▁2021	-9.33581
인지	-9.33615
▁최종	-9.33641
▁윤	-9.33709
」	-9.33775
▁가능	-9.33855
약	-9.33857
▁이유로	-9.34033
▁회복	-9.34147
▁말한다	-9.34245
▁청	-9.3436
▁루	-9.34433
▁year	-9.34437
▁운영	-9.34466
▁인간	-9.34677
▁주는	-9.34743
▁being	-9.34747
”	-9.34755
▁사이	-9.34781
이란	-9.34966
▁소속	-9.35136
▁분	-9.35228
보다는	-9.3538
▁스타	-9.35502
mm	-9.35532
▁이번	-9.35645
되면서	-9.35707
▁디	-9.35819
(...).	-9.35825
▁나왔다	-9.35866
씨	-9.35893
el	-9.35904
▁풀	-9.35919
▁출연	-9.35939
환	-9.35991
▁활동	-9.35996
▁현대	-9.36161
▁도시	-9.3617
커	-9.3619
_	-9.36355
량	-9.36606
▁became	-9.36767
절	-9.36858
▁War	-9.37066
래	-9.37265
J	-9.37382
▁말이	-9.37486
락	-9.37538
별	-9.37614
▁중요한	-9.37647
암	-9.37716
▁한편	-9.37894
▁나머지	-9.37932
▁John	-9.37992
▁허	-9.38019
▁through	-9.38089
▁이유는	-9.38124
ist	-9.38165
▁뿐	-9.38189
▁문제는	-9.3822
년에는	-9.38236
▁스토리	-9.38647
▁보는	-9.38827
▁최	-9.38837
▁독일	-9.38859
▁보이는	-9.38862
▁문서	-9.38918
열	-9.39092
▁대부분의	-9.39156
▁들고	-9.39158
▁well	-9.39241
▁수상	-9.39383
팀	-9.39456
▁She	-9.39607
월에	-9.39725
▁조선	-9.39808
▁것과	-9.39919
색	-9.39942
▁정보	-9.39981
▁길	-9.40018
억	-9.40047
▁team	-9.40048
조차	-9.40279
▁낮은	-9.40289
▁그를	-9.40322
▁종	-9.40625
매	-9.40639
ia	-9.40673
▁대학	-9.40829
▁받는	-9.41109
표	-9.41156
▁피해를	-9.41174
▁되면	-9.41182
▁school	-9.41275
명의	-9.41293
▁설정	-9.41375
▁되지	-9.41555
▁우리	-9.41566
km	-9.41598
있는	-9.41658
▁Re	-9.41672
▁아이템	-9.41684
▁그가	-9.41825
라면	-9.41833
▁대회	-9.41895
▁생산	-9.41927
족	-9.42132
되며	-9.42179
▁러시아	-9.42326
▁소환	-9.42447
날	-9.4252
▁검	-9.4262
한테	-9.42814
▁높다	-9.42839
12	-9.4285
▁내가	-9.42886
▁1998	-9.42887
▁순간	-9.43075
자가	-9.43172
▁한번	-9.4332
de	-9.43373
▁After	-9.4339
?"	-9.43411
▁York	-9.43429
▁series	-9.43643
▁이제	-9.43749
스타	-9.43856
퍼	-9.43888
▁while	-9.43934
▁요	-9.43939
▁이름	-9.43995
▁진짜	-9.44006
▁나는	-9.44098
작	-9.44108
▁눈	-9.44182
ry	-9.44185
▁KBS	-9.44224
▁모습이	-9.44299
▁팔	-9.44306
▁베	-9.44372
.#	-9.44408
▁before	-9.44521
▁그룹	-9.44527
▁대전	-9.44626
▁참가	-9.44671
▁가수	-9.44726
w	-9.44752
▁밖에	-9.4496
TV	-9.45074
▁기타	-9.45116
▁선택	-9.45315
▁second	-9.45494
▁슈퍼	-9.45505
▁South	-9.45666
▁many	-9.45669
na	-9.45746
▁파괴	-9.45747
▁특수	-9.45823
▁including	-9.45996
평	-9.46132
ne	-9.46226
▁name	-9.46315
▁위에	-9.46435
▁일을	-9.46464
시키는	-9.46546
▁전용	-9.46598
▁않을	-9.46602
▁앨범	-9.46627
▁제외한	-9.46638
▁현재는	-9.46687
▁친	-9.46877
▁전체	-9.47042
▁May	-9.47068
▁감소	-9.471
▁유럽	-9.47169
▁상황	-9.4719
링	-9.4736
▁so	-9.47502
▁1999	-9.47517
▁올림픽	-9.47521
슈	-9.47547
▁적을	-9.47687
▁항상	-9.477
▁중에	-9.47735
▁부산	-9.47891
▁상태	-9.47908
골	-9.47935
▁좋지	-9.4798
▁상황이	-9.48054
있다	-9.48171
▁보스	-9.48385
▁상황에서	-9.48638
▁경우는	-9.48656
범	-9.48729
▁긴	-9.48774
▁존재한다	-9.48864
▁아버지	-9.49232
레벨	-9.49234
▁against	-9.49514
▁이상의	-9.49521
다고	-9.49641
▁다르게	-9.49662
▁타고	-9.49681
▁교육	-9.4972
▁발동	-9.49864
학년	-9.49903
▁출시	-9.50036
▁이름이	-9.50067
▁두고	-9.50138
▁만약	-9.50182
세대	-9.50222
풍	-9.5037
▁until	-9.50383
▁쿠	-9.5045
▁British	-9.50523
▁수가	-9.50597
샤	-9.50605
애	-9.50841
▁북	-9.50865
턴	-9.50889
▁them	-9.50937
▁블랙	-9.50982
▁메인	-9.51
▁중앙	-9.51024
▁하기	-9.51044
▁멤버	-9.51102
▁국내	-9.51108
▁못했다	-9.51164
▁승리	-9.51297
▁사실을	-9.5131
망	-9.51371
▁집	-9.51459
▁|-	-9.51475
듯	-9.51498
▁시작했다	-9.51524
증	-9.51529
▁능력을	-9.51534
▁국제	-9.51541
렌	-9.51567
▁여담으로	-9.51569
is	-9.51603
▁II	-9.51772
▁아이돌	-9.51833
▁p	-9.51866
처	-9.52011
윤	-9.52058
▁동문	-9.52134
▁album	-9.52267
ity	-9.52317
칸	-9.5244
born	-9.52488
▁피해	-9.52526
▁개인	-9.52538
▁1980	-9.52633
ta	-9.5265
▁number	-9.52672
▁민	-9.5278
▁바람에	-9.52792
되기	-9.52863
▁정치	-9.52992
총	-9.53026
▁위해서	-9.5306
▁County	-9.53101
▁애	-9.53193
▁효과	-9.53382
▁반면	-9.53461
▁각종	-9.53477
▁area	-9.53478
▁아니고	-9.53525
▁1997	-9.53594
▁메	-9.53634
▁몬스터	-9.53734
업	-9.53794
하다가	-9.53812
▁사회	-9.53916
▁순	-9.53937
송	-9.54051
▁특정	-9.54073
▁La	-9.541
▁체력	-9.54164
▁work	-9.54233
▁마스터	-9.54314
만큼	-9.54344
▁both	-9.54349
▁친구	-9.54551
충	-9.5456
▁1996	-9.5463
▁만드는	-9.54639
–19	-9.54692
▁등으로	-9.54699
스트	-9.54767
com	-9.54776
▁사람은	-9.5496
리그	-9.55014
▁주변	-9.5503
▁영어	-9.55047
▁올	-9.55138
id	-9.55213
숙	-9.55228
▁빠른	-9.55268
▁See	-9.55332
빈	-9.55342
라도	-9.55469
▁하면서	-9.55639
▁되었고	-9.55652
▁싱글	-9.55709
▁데뷔	-9.55803
▁정작	-9.55807
장을	-9.55866
▁본인이	-9.55933
▁이용	-9.56016
▁못하는	-9.56027
▁얻을	-9.56044
▁투	-9.56072
▁종료	-9.5647
하나	-9.565
대학교	-9.56751
▁아들	-9.56797
▁권	-9.56812
▁입	-9.5688
▁선발	-9.5688
▁game	-9.56892
▁유명한	-9.56998
the	-9.56999
▁정도의	-9.5701
▁않게	-9.57011
▁유지	-9.57013
〉	-9.57043
▁적은	-9.57141
▁City	-9.57149
▁De	-9.57158
▁프로그램	-9.57278
▁판	-9.57316
▁초반	-9.57354
▁갑자기	-9.57354
▁슈	-9.5741
볼	-9.57573
▁다음과	-9.57592
채	-9.57706
▁구성	-9.57796
필	-9.57831
▁〈	-9.57996
▁머리	-9.58046
▁연속	-9.58177
도록	-9.584
지도	-9.58421
▁돈	-9.58455
▁들	-9.58465
at	-9.58507
말	-9.58556
▁—	-9.5863
▁English	-9.58632
으나	-9.5864
▁League	-9.58662
▁작중	-9.58746
성을	-9.58822
▁번역	-9.59007
▁듣고	-9.59029
▁없을	-9.59039
명을	-9.59129
▁관계	-9.5924
co	-9.59248
▁있으나	-9.59266
술	-9.593
기로	-9.59349
▁약간	-9.59488
▁따로	-9.59519
려고	-9.59648
룡	-9.59672
▁칼	-9.59678
▁1995	-9.59724
▁일정	-9.59795
▁가까운	-9.5993
▁장비	-9.59937
▁참	-9.60004
▁뒤에	-9.60039
▁대통령	-9.60066
▁것이라고	-9.60095
▁경우에는	-9.60181
▁지난	-9.60219
▁막	-9.60296
▁Al	-9.60332
▁=	-9.60363
▁un	-9.60403
v	-9.60437
▁광	-9.60546
▁월드	-9.60588
▁클리어	-9.60592
밖에	-9.60639
▁이용해	-9.60699
▁처음으로	-9.60712
▁may	-9.60715
▁나중에	-9.60794
▁제일	-9.60804
▁등장인물	-9.60813
▁지금	-9.60829
!!	-9.60832
갈	-9.60836
다는	-9.60919
되었으며	-9.60925
um	-9.60981
▁...	-9.60983
울	-9.61033
em	-9.61051
▁죽은	-9.61161
▁will	-9.61198
20	-9.61267
라운드	-9.61398
▁계열	-9.61404
▁쇼	-9.6141
▁별로	-9.61543
▁딸	-9.61594
스의	-9.61624
▁결정	-9.6166
▁폭발	-9.61678
▁사이에	-9.61728
▁게임을	-9.618
▁빠르게	-9.61828
격	-9.61833
규	-9.61843
▁감	-9.61914
으면	-9.61919
▁성공	-9.62038
▁과정에서	-9.62046
▁우주	-9.62166
▁played	-9.62218
▁엘	-9.6223
▁영웅	-9.62232
▁만화	-9.62259
it	-9.62289
▁하이	-9.62353
록	-9.62367
▁관한	-9.62371
곤	-9.62371
검	-9.62398
호선	-9.624
으로서	-9.62497
▁만들	-9.6254
▁유닛	-9.6254
▁사용한다	-9.62551
▁경제	-9.6259
▁MBC	-9.6261
▁보니	-9.62715
귀	-9.62863
▁life	-9.62864
▁공개	-9.62882
▁드래곤	-9.62972
일부터	-9.62973
▁식으로	-9.62979
라며	-9.63069
▁상승	-9.63081
▁말에	-9.63084
됐다	-9.63092
▁진출	-9.63164
▁갖고	-9.63192
▁이름은	-9.63228
옥	-9.63244
▁법	-9.63267
성이	-9.63345
▁하여	-9.63369
ch	-9.63408
wiki	-9.63484
탈	-9.6356
▁있다면	-9.63615
훈	-9.63676
▁에피소드	-9.63678
▁와	-9.63685
に	-9.63698
▁부족	-9.63849
▁절대	-9.63888
▁차이가	-9.63906
▁아니	-9.63996
▁released	-9.64143
▁반대	-9.64246
언	-9.64256
30	-9.64293
▁발표	-9.64361
입	-9.64389
까	-9.64458
김	-9.64484
▁애초에	-9.64525
▁설치	-9.64668
▁공격력	-9.64717
▁없다고	-9.64734
향	-9.64811
▁최고의	-9.64814
기는	-9.6484
▁위치한	-9.64852
찬	-9.64938
▁60	-9.6494
▁station	-9.65
▁남성	-9.65005
▁안에	-9.65023
녀	-9.65049
▁state	-9.65062
악	-9.65119
▁아니면	-9.65255
▁건설	-9.65326
쇼	-9.65375
▁레이	-9.65477
▁관리	-9.65521
▁설명	-9.65523
외	-9.65577
고등학교	-9.65615
▁조사	-9.65637
촌	-9.65664
▁평가	-9.65753
▁잠시	-9.65935
▁부분	-9.65935
(?)	-9.65957
▁예를	-9.65958
▁어린	-9.66
▁이야기를	-9.66037
ian	-9.66186
Y	-9.66252
ism	-9.66361
▁대사	-9.6643
스가	-9.6643
▁At	-9.66492
▁1994	-9.66503
▁앞에	-9.66543
▁me	-9.66568
▁called	-9.66607
▁필요한	-9.66639
▁음반	-9.66695
▁대표	-9.66713
▁그리	-9.6675
U	-9.66761
▁살아있는	-9.66812
▁four	-9.66835
▁North	-9.66864
▁생	-9.66876
▁무려	-9.66944
Z	-9.66982
▁조직	-9.67037
▁March	-9.6709
▁철	-9.67114
▁노선	-9.67133
▁효과를	-9.67167
▁won	-9.67196
▁했으나	-9.67228
삼	-9.67293
▁쓴	-9.67362
▁끝에	-9.67373
입니다	-9.67379
▁수정	-9.67382
▁능력	-9.6754
▁경기에서	-9.67588
추	-9.67611
▁오래	-9.67639
▁있었고	-9.67669
▁변	-9.67708
▁문화	-9.67797
▁August	-9.67837
수가	-9.6787
▁end	-9.67967
독	-9.68019
▁여기에	-9.68082
▁결혼	-9.68265
▁former	-9.68345
▁그녀의	-9.68433
변	-9.68592
▁로마	-9.68701
ate	-9.68718
▁남은	-9.68737
▁나올	-9.68777
▁초기	-9.68829
▁스스로	-9.69018
▁무슨	-9.69212
▁Me	-9.69275
▁탑	-9.69277
하라	-9.69277
▁더불어	-9.69413
전에서	-9.6946
극	-9.69489
▁없다는	-9.69496
출	-9.69513
▁same	-9.69529
▁시스템	-9.69566
▁나가	-9.69609
son	-9.69619
11	-9.69697
able	-9.69744
▁History	-9.69825
▁해외	-9.69876
▁있으면	-9.6995
▁이게	-9.70041
▁State	-9.7022
te	-9.70221
-1	-9.7023
이므로	-9.70232
▁봉	-9.70236
▁목	-9.70273
대학	-9.70363
▁암	-9.70462
▁교체	-9.70522
▁All	-9.70532
land	-9.70535
년까지	-9.70574
임을	-9.70654
▁보여준다	-9.70659
▁검은	-9.7069
▁준다	-9.70712
▁귀	-9.70772
▁혼자	-9.70779
▁독립	-9.70802
북	-9.70843
▁유일한	-9.70848
▁For	-9.70874
해도	-9.70937
▁이유	-9.70996
▁교	-9.71036
▁사진	-9.71071
▁좋아하는	-9.71302
as	-9.71308
▁야구	-9.71316
▁*	-9.71328
▁중에서	-9.71366
▁상태에서	-9.714
▁돌	-9.71468
▁모델	-9.71471
▁티	-9.71482
▁several	-9.71534
▁등장한	-9.71562
▁September	-9.71604
▁d	-9.7165
▁back	-9.71705
()	-9.71715
▁200	-9.71728
▁히	-9.7174
▁사랑	-9.71851
▁했던	-9.7187
▁니	-9.71912
지를	-9.7211
냐	-9.72114
▁위의	-9.72116
48	-9.72119
▁전기	-9.72147
▁태	-9.72189
학교	-9.7225
▁모드	-9.72377
▁얼마	-9.72402
▁하루	-9.72469
▁하게	-9.72471
궁	-9.72553
▁팬	-9.7256
▁있으니	-9.72599
막	-9.726
▁유일하게	-9.72655
▁자세한	-9.72736
▁텔레비전	-9.72748
15	-9.7278
▁획득	-9.72838
로는	-9.72924
▁뛰어난	-9.72967
▁July	-9.73006
시킨	-9.73018
▁독	-9.73037
▁항목	-9.73115
▁June	-9.73289
▁반대로	-9.73333
▁식	-9.7334
▁삼성	-9.73344
▁An	-9.73383
▁필요	-9.73402
▁쓰고	-9.73466
▁받을	-9.73533
슨	-9.73558
▁작가	-9.737
▁Co	-9.73742
죠	-9.73785
결	-9.73825
▁아래	-9.73827
▁가운데	-9.73872
▁이탈리아	-9.73951
▁적용	-9.74022
il	-9.74066
et	-9.74107
▁October	-9.74107
▁1992	-9.74127
했다는	-9.74175
▁추	-9.74202
돌	-9.74267
▁밝혔다	-9.74308
▁1970	-9.744
18	-9.74407
▁잘못	-9.74509
▁인한	-9.74536
▁자리를	-9.74669
▁있지	-9.74771
▁파워	-9.74787
ma	-9.74831
▁m	-9.74868
▁They	-9.749
16	-9.74918
▁e	-9.74951
▁early	-9.74985
▁졸업	-9.74985
▁배치	-9.75156
▁January	-9.75212
▁월드컵	-9.75234
い	-9.75253
▁사람을	-9.75272
▁경기를	-9.75326
런	-9.75361
ine	-9.75408
▁부활	-9.75414
시즌	-9.75484
▁실	-9.75489
▁운행	-9.75503
▁최근	-9.75507
릴	-9.75514
▁건담	-9.7553
▁상당한	-9.75552
으로부터	-9.75595
페	-9.75598
▁자체는	-9.75646
품	-9.7577
▁종종	-9.75781
▁요리	-9.7579
▁맵	-9.75922
▁아무	-9.76046
▁건물	-9.76063
담	-9.7608
▁망	-9.76106
▁새로	-9.76121
▁do	-9.76244
씩	-9.76327
▁한정	-9.76352
게임	-9.76393
ment	-9.7658
황	-9.7664
한다는	-9.76644
▁행동	-9.76681
▁듯하다	-9.76693
▁following	-9.76709
▁처리	-9.76833
▁성장	-9.76872
▁His	-9.76948
▁없지만	-9.76991
▁these	-9.77027
▁라고	-9.77093
▁반드시	-9.77136
▁몇몇	-9.77149
▁점점	-9.77182
라서	-9.77254
▁대체	-9.77308
▁방영	-9.77356
▁때마다	-9.77362
▁제외하면	-9.77387
▁다소	-9.77541
▁팀의	-9.77611
▁칸	-9.77744
▁겸	-9.77765
▁도로	-9.77884
▁전사	-9.77887
▁점을	-9.77893
▁있었는데	-9.7793
▁드	-9.7795
▁보아	-9.77958
40	-9.77991
century	-9.78012
▁알게	-9.78059
▁기본적으로	-9.78076
▁시간을	-9.78077
글	-9.78089
▁use	-9.78092
▁형	-9.781
▁April	-9.7811
▁구조	-9.78152
ur	-9.78156
▁career	-9.78197
알	-9.78202
▁병	-9.78242
▁수많은	-9.78297
졌다	-9.78325
이라면	-9.78371
▁받는다	-9.784
▁해야	-9.7844
▁LG	-9.78526
nd	-9.78544
▁페	-9.78577
▁컴퓨터	-9.78588
▁To	-9.78648
▁1993	-9.78673
▁앞	-9.7879
▁봐도	-9.78816
킹	-9.78861
▁전국	-9.78871
▁기업	-9.78884
▁때까지	-9.78921
▁도쿄	-9.7894
▁주의	-9.78959
▁업데이트	-9.78974
머	-9.78976
▁이건	-9.79119
▁나와	-9.79199
▁West	-9.792
▁류	-9.79214
▁되는데	-9.79257
▁힘	-9.79474
▁home	-9.79485
▁대학교	-9.79573
ty	-9.79585
▁없어서	-9.7963
▁마을	-9.79633
▁판매	-9.79655
は	-9.79777
▁1991	-9.79778
▁이름으로	-9.79785
▁Y	-9.79793
▁games	-9.79796
▁가서	-9.79833
25	-9.79837
▁나서	-9.79928
▁효과가	-9.79931
하였으며	-9.79987
ra	-9.8003
▁확인	-9.80125
▁set	-9.80128
▁전차	-9.80146
▁역대	-9.80236
▁자체	-9.80246
▁music	-9.80279
07	-9.80293
▁now	-9.80301
▁들어가	-9.80302
없이	-9.80309
▁지방	-9.80329
▁도중	-9.80369
ley	-9.80409
▁것처럼	-9.8051
쉬	-9.80511
▁시대	-9.80552
▁소설	-9.80574
▁There	-9.80603
▁했는데	-9.80912
▁극	-9.80916
▁철도	-9.80961
개를	-9.80971
에게는	-9.80986
▁city	-9.81065
익	-9.81236
▁family	-9.8124
▁있었지만	-9.81404
60	-9.8143
함을	-9.81502
▁빈	-9.81502
▁College	-9.81591
▁담당	-9.81616
들에	-9.8162
시킬	-9.81636
17	-9.81646
▁상태로	-9.81669
▁선거	-9.81671
▁대구	-9.81721
▁high	-9.8177
24	-9.81839
워	-9.81847
▁퀘스트	-9.81862
▁모양	-9.8187
▁소개	-9.81943
▁고려	-9.82019
▁버전	-9.82029
주는	-9.82047
▁since	-9.82057
▁vs	-9.8206
▁연출	-9.82095
▁found	-9.82127
▁유리	-9.82178
▁최초로	-9.82317
▁않으면	-9.82331
▁포함	-9.82487
▁어려운	-9.82504
▁song	-9.82507
▁population	-9.82562
・	-9.82601
▁계획	-9.82641
▁스테이지	-9.82676
▁생긴	-9.82694
▁가면	-9.82739
▁November	-9.82753
▁요구	-9.82769
▁연결	-9.82775
▁충분히	-9.82873
야마	-9.82887
▁정부	-9.82913
▁가끔	-9.82923
▁빨리	-9.82935
▁탓에	-9.82962
▁무조건	-9.83025
▁장면이	-9.83081
▁학생	-9.83093
cm	-9.83146
▁생활	-9.83249
be	-9.83257
▁하나로	-9.83288
▁열린	-9.83289
▁출전	-9.83301
up	-9.83353
▁December	-9.8338
▁수비	-9.83479
▁벌	-9.83491
se	-9.83536
▁내에서	-9.83538
▁비롯한	-9.83575
ie	-9.83633
age	-9.83702
▁차량	-9.83715
▁연기	-9.83719
▁Le	-9.8381
▁패배	-9.83927
것	-9.83933
▁You	-9.83943
▁조합	-9.84003
▁group	-9.84022
▁{{{#!	-9.8405
▁발사	-9.841
-2	-9.84101
▁인도	-9.84196
▁교수	-9.84357
▁아무리	-9.84386
▁뭐	-9.84413
la	-9.84468
▁관	-9.84508
▁의외로	-9.84563
é	-9.84589
▁배틀	-9.84624
▁샤	-9.84634
▁c	-9.84648
▁자유	-9.84658
▁섬	-9.84662
▁사고	-9.84684
▁속성	-9.84699
▁밤	-9.84707
몬	-9.84753
▁서비스	-9.84837
▁외에도	-9.84904
▁설	-9.85008
▁기간	-9.85011
▁준비	-9.85033
▁본인의	-9.85046
▁80	-9.85065
▁발견	-9.85134
▁맨	-9.85147
축	-9.85222
un	-9.8523
▁발생	-9.85321
▁능력이	-9.85388
ary	-9.85423
▁너	-9.8555
▁나오지	-9.85569
▁관련된	-9.8558
▁손을	-9.85643
▁굳이	-9.85683
▁의하면	-9.8569
▁like	-9.85693
▁그야말로	-9.85719
▁따	-9.85771
▁보였다	-9.85928
리스	-9.85946
합	-9.85963
)'	-9.85983
▁named	-9.86039
▁디자인	-9.86137
▁점이	-9.86186
▁Q	-9.86201
▁based	-9.86359
13	-9.86364
am	-9.86382
손	-9.8642
▁본래	-9.86466
▁밴드	-9.86476
▁Man	-9.86494
▁석	-9.86525
▁후반	-9.8656
▁돈을	-9.86573
▁90	-9.8658
위원회	-9.86599
os	-9.86654
▁좋아	-9.86655
▁기계	-9.8671
▁위치	-9.8671
▁풍	-9.86794
▁거기에	-9.86825
://	-9.8686
me	-9.86888
▁최초의	-9.86917
▁500	-9.86944
▁직후	-9.86952
▁통	-9.87058
▁established	-9.87095
▁제한	-9.87229
、	-9.87257
▁정식	-9.87269
▁음	-9.87277
▁제국	-9.87281
▁football	-9.87304
▁이후로	-9.87309
만을	-9.87318
▁1988	-9.87389
하려	-9.87436
01	-9.87514
▁무장	-9.87516
▁each	-9.87556
ad	-9.87681
▁(18	-9.87766
▁began	-9.87827
ro	-9.87874
▁마치	-9.87947
▁보내	-9.87951
▁고정	-9.8797
점을	-9.87977
▁2022	-9.87988
▁함	-9.88019
▁사람들은	-9.8802
▁레드	-9.88069
▁비밀	-9.88088
완	-9.88132
▁알려져	-9.88134
블	-9.88146
▁모습	-9.88249
개월	-9.88262
▁나무	-9.88266
▁촬영	-9.88334
▁앞에서	-9.88356
▁평균	-9.88363
버린	-9.88373
홍	-9.8838
▁전문	-9.88388
▁government	-9.88393
▁band	-9.88466
▁아마	-9.88599
▁특유의	-9.88606
▁표현	-9.88608
(19	-9.88629
권을	-9.88697
▁한국의	-9.88706
마저	-9.88709
▁평	-9.8874
▁말했다	-9.88802
▁place	-9.88881
を	-9.88918
▁잡아	-9.88941
▁설립	-9.88958
▁곧	-9.88959
▁공연	-9.88974
▁men	-9.89016
합니다	-9.89087
▁내용	-9.89107
no	-9.8914
j	-9.89159
▁다크	-9.89168
▁데미지	-9.89286
▁중심으로	-9.89422
센	-9.89428
▁탄	-9.89498
▁SBS	-9.89623
▁클럽	-9.89623
▁소리	-9.89624
▁German	-9.89655
▁미션	-9.89677
▁않지만	-9.89691
▁인터넷	-9.89709
▁located	-9.89786
▁등에	-9.89797
▁뉴	-9.89901
▁헤	-9.89962
였고	-9.89987
▁생각하면	-9.89998
▁집중	-9.90035
▁분류	-9.9005
▁고대	-9.90076
▁앞서	-9.90078
▁듯한	-9.90125
▁One	-9.90153
▁이걸	-9.90194
▁any	-9.9031
▁밀	-9.9031
▁통합	-9.9039
▁군사	-9.90398
▁1989	-9.90444
▁발전	-9.90571
▁말하는	-9.90605
14	-9.90676
▁국민	-9.90739
▁시도	-9.90778
▁다르다	-9.90823
▁기존의	-9.90844
▁town	-9.90913
が	-9.90943
▁single	-9.90991
▁했고	-9.91042
▁그린	-9.91057
▁달성	-9.91074
만이	-9.91173
견	-9.91205
쓰	-9.91208
21	-9.91252
▁사상	-9.91293
▁혼	-9.91392
▁However	-9.91426
▁전개	-9.91433
▁수록	-9.91443
▁시리즈의	-9.91476
▁얼마나	-9.91543
▁스포츠	-9.91583
▁만나	-9.91596
▁Cup	-9.91621
▁could	-9.91637
▁수준	-9.91718
용으로	-9.91748
시에	-9.91809
▁골	-9.91943
▁기억	-9.91967
▁century	-9.91992
▁US	-9.92054
▁되면서	-9.921
▁부분이	-9.92164
▁입고	-9.92175
버린다	-9.92211
팅	-9.92246
사가	-9.92295
▁아군	-9.92319
▁라는	-9.92342
했기	-9.92379
▁인천	-9.92443
밀	-9.92486
08	-9.92492
▁1987	-9.92492
▁라이브	-9.92542
▁did	-9.92553
▁around	-9.92622
▁라디오	-9.92659
▁운동	-9.92672
▁보호	-9.92706
스는	-9.92717
▁High	-9.92832
버스	-9.92835
섬	-9.92952
▁성우는	-9.92978
math	-9.93026
▁각성	-9.93027
▁에너지	-9.93049
엘	-9.93053
님	-9.93054
▁San	-9.93081
▁여기	-9.93106
▁말았다	-9.93176
▁육군	-9.93285
에서의	-9.93389
▁맥	-9.9339
▁쓰	-9.93447
▁해군	-9.93462
▁딱	-9.93498
▁홈페이지	-9.93537
▁자료	-9.93626
에게서	-9.93627
▁외국인	-9.93647
▁km	-9.93673
톤	-9.93718
척	-9.9375
▁되기	-9.93789
▁local	-9.9381
▁한다는	-9.93836
장이	-9.939
한다고	-9.93907
▁이들은	-9.93979
▁본인	-9.93988
▁경찰	-9.94009
이라도	-9.94069
▁포함한	-9.94092
▁February	-9.94102
▁아프리카	-9.94131
▁복	-9.94149
ant	-9.94152
었고	-9.94263
one	-9.94275
▁종교	-9.94287
이니	-9.9435
▁co	-9.94415
시켰다	-9.94416
▁대형	-9.94456
스터	-9.94457
▁꼭	-9.94493
▁행정	-9.94579
되면	-9.9465
▁그걸	-9.94656
▁점에서	-9.94664
▁확장	-9.94675
-19	-9.94777
▁워	-9.94797
70	-9.94807
▁모습으로	-9.94834
읍	-9.94838
▁워낙	-9.94904
▁International	-9.95006
친	-9.95022
▁회사	-9.95028
▁훈련	-9.95045
스를	-9.95154
쳐	-9.95228
80	-9.95301
▁births	-9.95304
▁모르는	-9.95371
▁던전	-9.95376
▁system	-9.95448
ge	-9.9546
버렸다	-9.95468
▁지속	-9.95491
시키고	-9.95551
ri	-9.95565
▁1960	-9.95599
▁몸을	-9.95654
자를	-9.95675
▁나라	-9.95765
▁의한	-9.95784
▁활동을	-9.9585
▁타이	-9.95851
▁엔딩	-9.9586
▁있었으나	-9.95932
▁members	-9.95942
▁television	-9.95981
▁world	-9.95994
위로	-9.96001
▁맞는	-9.96082
단계	-9.96111
립	-9.96137
▁사격	-9.96218
ir	-9.96233
▁가족	-9.96262
▁미리	-9.96288
▁변신	-9.96301
▁player	-9.9636
▁비판	-9.9638
▁계약	-9.96411
진다	-9.96443
▁과학	-9.96445
칠	-9.96449
▁소모	-9.96479
▁받지	-9.96509
▁지금은	-9.96564
▁기록했다	-9.96586
▁시험	-9.96589
▁유튜브	-9.96655
▁due	-9.96706
▁대표적인	-9.9672
▁처	-9.96762
▁마무리	-9.96805
▁특성상	-9.969
나가	-9.96958
▁국회의원	-9.96993
▁아니지만	-9.97023
먼	-9.97031
▁사는	-9.97049
▁주고	-9.97054
▁패치	-9.97099
▁그저	-9.97099
▁팀이	-9.97115
하려고	-9.9714
▁속도	-9.97161
▁타격	-9.97165
ve	-9.97216
▁단순히	-9.97341
▁체력이	-9.97394
▁문제를	-9.97407
▁소녀	-9.97411
▁국	-9.97412
ter	-9.97426
▁앞으로	-9.97526
헌	-9.97564
새	-9.97566
자의	-9.97578
▁지정	-9.97589
▁32	-9.97624
▁테	-9.97634
▁고등학교	-9.97652
▁점프	-9.97666
리아	-9.97706
▁단체	-9.97718
▁흑	-9.97779
▁어머니	-9.97803
▁지구	-9.97891
▁눈에	-9.97897
▁조정	-9.97942
▁내용은	-9.98063
der	-9.9813
▁탈	-9.98134
▁off	-9.98145
▁인기	-9.9821
콘	-9.98214
▁대화	-9.98266
▁먹고	-9.98313
ll	-9.98344
▁70	-9.9838
▁상황을	-9.98406
▁Mar	-9.98443
▁앤	-9.98474
카와	-9.98485
▁조작	-9.98559
시킨다	-9.98565
▁공동	-9.98566
▁나이	-9.9858
▁1986	-9.98595
▁정신	-9.9861
▁Go	-9.98633
▁day	-9.98666
▁films	-9.98676
▁목록	-9.98697
▁초대	-9.98711
▁PC	-9.98739
▁질	-9.98778
누	-9.98784
▁원작	-9.98811
▁경기도	-9.98841
▁누	-9.98842
▁작전	-9.98874
▁오후	-9.98883
▁French	-9.98889
사를	-9.98943
▁long	-9.98956
▁대상	-9.99022
22	-9.99025
므로	-9.99036
▁시작한다	-9.99046
|	-9.99064
자는	-9.99138
▁뉴스	-9.99204
▁대해서는	-9.99229
▁표	-9.99246
▁확정	-9.99273
▁부른다	-9.99304
▁힘든	-9.99326
▁아르	-9.99354
람	-9.99399
▁부여	-9.99431
▁물리	-9.99563
▁경력	-9.99589
▁수는	-9.99637
▁셈	-9.99703
▁크	-9.99712
大	-9.99767
▁책	-9.9981
▁곳에	-9.99857
▁승리를	-9.99863
▁언어	-9.99903
▁편성	-9.99928
▁London	-9.99957
▁거대한	-9.99959
▁지하	-9.99992
▁진화	-10.0007
▁때도	-10.0013
▁예상	-10.0013
▁카드를	-10.0014
혼	-10.0015
▁사기	-10.0017
▁후보	-10.0017
플	-10.002
▁도입	-10.0024
▁company	-10.0028
▁public	-10.0035
▁마음을	-10.0035
▁울	-10.0039
▁투수	-10.0042
▁down	-10.0046
▁참여	-10.005
▁우선	-10.005
▁타입	-10.0052
▁합	-10.0059
▁left	-10.0061
초등학교	-10.0062
▁사업	-10.0062
▁의미	-10.0065
▁SK	-10.007
▁-1	-10.0072
▁꽤나	-10.0077
차전	-10.008
방송	-10.0082
▁동물	-10.0082
▁직업	-10.0084
▁일반적인	-10.0084
▁로봇	-10.0085
벨	-10.0092
▁크다	-10.0093
▁논란이	-10.01
23	-10.0101
ated	-10.0103
▁도움을	-10.0103
▁많아	-10.0111
▁along	-10.0113
ive	-10.0126
지라	-10.0127
▁근접	-10.013
▁이와	-10.0132
▁실패	-10.0132
▁built	-10.0135
▁플레이어	-10.0139
▁적의	-10.0141
▁if	-10.0148
▁기대	-10.0148
▁Park	-10.0151
▁마리	-10.0154
▁club	-10.0154
▁빅	-10.0155
▁member	-10.0158
▁악	-10.0173
하도록	-10.0173
▁추천	-10.0183
▁CD	-10.0184
▁점은	-10.0185
존	-10.0191
▁주장	-10.0198
▁챔피언	-10.0198
▁전환	-10.0203
go	-10.0207
▁범위	-10.0207
▁아시아	-10.021
▁held	-10.021
▁dis	-10.0214
▁운	-10.0221
▁show	-10.023
▁술	-10.0235
▁치료	-10.0246
▁척	-10.026
▁last	-10.0262
90	-10.0266
군의	-10.0268
▁b	-10.0268
▁House	-10.0269
▁비교적	-10.0271
▁기능	-10.0271
▁캐나다	-10.0275
▁(19	-10.0289
▁Pro	-10.0293
▁아는	-10.0294
ak	-10.0297
▁잔	-10.0298
▁특징	-10.0298
▁border	-10.0302
일까지	-10.0303
』	-10.0305
▁오리지널	-10.0319
▁1984	-10.032
올	-10.0321
▁없기	-10.0324
돈	-10.0327
▁own	-10.0332
▁스페인	-10.0333
대를	-10.0338
27	-10.0341
▁소년	-10.0343
▁까	-10.0345
▁수행	-10.0354
▁자연	-10.0361
||	-10.0363
▁손에	-10.0364
▁took	-10.0393
▁선정	-10.04
▁인구	-10.04
스러운	-10.0408
중학교	-10.041
▁근데	-10.0417
▁지지	-10.0417
▁line	-10.0421
▁향	-10.0428
이었고	-10.0428
▁시기	-10.0429
▁자신은	-10.0429
▁곳	-10.0431
▁롯데	-10.0432
튼	-10.0433
▁보다	-10.0434
▁전설	-10.0434
혜	-10.0435
이닝	-10.0439
▁published	-10.0444
▁당장	-10.0444
▁because	-10.0445
▁버	-10.0445
▁라인	-10.0446
▁프리	-10.045
▁콜	-10.046
da	-10.0462
▁폴	-10.047
▁온라인	-10.0471
▁대해서	-10.0473
▁최소	-10.0475
)]	-10.0477
▁사이트	-10.0478
▁반응	-10.0482
▁동생	-10.0487
▁공략	-10.049
▁엔진	-10.0492
▁People	-10.0495
▁취급	-10.0499
▁언급	-10.0502
▁\	-10.0503
▁small	-10.0504
▁부르는	-10.0513
▁어렵다	-10.0516
▁보조	-10.0522
▁『	-10.0526
▁절	-10.0529
갑	-10.0529
▁하나의	-10.053
▁national	-10.0531
▁정보를	-10.0531
▁어느정도	-10.0536
▁난이도	-10.0539
▁My	-10.0541
▁활용	-10.0543
▁죽을	-10.0546
▁확실히	-10.0547
▁비디오	-10.0552
▁꽃	-10.0556
▁세트	-10.0561
▁주문	-10.0568
▁1985	-10.0569
▁교통	-10.0572
▁형태로	-10.0575
▁작업	-10.0578
▁킹	-10.058
▁운용	-10.059
릭	-10.0596
▁해결	-10.0597
▁변화	-10.0597
ce	-10.0598
▁300	-10.0598
▁거쳐	-10.0598
▁만다	-10.06
▁Be	-10.0606
▁Mo	-10.0607
▁승	-10.0615
▁수밖에	-10.062
▁유도	-10.0623
▁맞	-10.0624
▁작곡	-10.0626
▁초반에	-10.0627
▁벽	-10.0627
▁찾아	-10.0627
▁표기	-10.0629
▁war	-10.063
▁광고	-10.0632
ler	-10.0636
[	-10.0637
▁집단	-10.0642
▁history	-10.0645
▁회피	-10.0649
▁의심	-10.0653
▁그림	-10.0655
탑	-10.0658
전에	-10.0666
06	-10.0668
→	-10.0669
ner	-10.0671
▁사람의	-10.0674
▁play	-10.0679
▁본인은	-10.0683
▁구간	-10.0684
른	-10.0692
ard	-10.0693
▁국가대표팀	-10.0701
▁탈출	-10.0705
28	-10.0708
▁에이스	-10.0711
▁나오고	-10.0713
▁During	-10.0715
▁딱히	-10.0718
▁사이에서	-10.0721
▁데미지를	-10.0724
▁분석	-10.0727
더니	-10.0732
Q	-10.0733
▁완전	-10.0735
▁패턴	-10.074
▁비행	-10.0741
▁기술을	-10.0741
▁바뀌었다	-10.0742
▁회	-10.0748
▁추가로	-10.0749
션	-10.0749
▁만들어진	-10.075
▁일은	-10.0754
▁홍콩	-10.0755
▁프로젝트	-10.0759
▁있도록	-10.0762
▁홈	-10.0765
였지만	-10.0765
▁짧은	-10.0766
▁글	-10.0769
▁잉글랜드	-10.0771
00	-10.0776
▁이유가	-10.0779
▁잡고	-10.0782
▁불리는	-10.0783
팔	-10.0785
▁just	-10.0785
▁Australia	-10.0788
티어	-10.0802
ous	-10.0802
▁입장	-10.0805
ー	-10.0806
▁맞고	-10.0814
참	-10.0814
▁투자	-10.0816
か	-10.0822
▁뇌	-10.0823
하려는	-10.0829
▁served	-10.083
▁이전에	-10.083
▁못한다	-10.0832
▁보이지	-10.0839
▁회장	-10.0839
と	-10.084
▁투입	-10.084
▁River	-10.0843
▁이후에	-10.0844
▁my	-10.0853
▁있습니다	-10.0855
임에도	-10.0856
▁격	-10.0857
준다	-10.0867
▁개선	-10.0868
▁List	-10.0871
ent	-10.0874
▁large	-10.0874
벌	-10.0883
침	-10.0884
▁복귀	-10.0884
▁35	-10.0888
▁블루	-10.089
▁El	-10.0894
☆	-10.0896
▁시전	-10.0897
▁도전	-10.0898
▁original	-10.0902
▁최대한	-10.0904
▁포인트	-10.0908
수를	-10.0908
▁그녀는	-10.0911
명은	-10.0914
▁이것은	-10.0916
▁1983	-10.0918
▁include	-10.0919
▁덕	-10.0925
▁필요가	-10.0926
▁시작한	-10.0926
▁이적	-10.0929
est	-10.094
▁배경	-10.0946
▁영입	-10.0948
▁만한	-10.0948
▁버프	-10.0948
나는	-10.0952
력을	-10.0953
▁중간	-10.0955
▁이용한	-10.0959
▁알려진	-10.0959
▁death	-10.097
기의	-10.0971
흥	-10.0975
▁나름	-10.0977
lin	-10.0978
세의	-10.0978
▁상대가	-10.0985
▁개최	-10.0992
▁보병	-10.0993
▁five	-10.0996
▁마이	-10.1
▁자신에게	-10.1006
▁힘이	-10.101
▁한다고	-10.101
▁뿐만	-10.1016
▁still	-10.1017
▁시설	-10.1023
09	-10.1028
▁대놓고	-10.1033
▁인식	-10.1037
▁사람들	-10.1042
▁급	-10.1042
▁잠깐	-10.1062
▁final	-10.1063
▁계	-10.1069
▁정의	-10.1073
▁FIFA	-10.1077
▁린	-10.1079
▁East	-10.1086
▁집에	-10.1089
▁광주	-10.1093
▁금지	-10.11
스와	-10.1101
▁일반적으로	-10.1103
▁연재	-10.1113
#	-10.112
▁얘기	-10.1122
▁위에서	-10.1127
▁district	-10.1133
▁said	-10.1135
답게	-10.1137
학과	-10.1139
시아	-10.1145
▁연장	-10.1148
▁좀비	-10.1148
▁1982	-10.1148
▁another	-10.1149
▁골드	-10.1149
ies	-10.1149
▁사용한	-10.1151
센터	-10.1156
▁명의	-10.1157
▁끝난	-10.1158
45	-10.1159
▁계산	-10.1172
문화	-10.1173
▁힐	-10.1174
▁1000	-10.1175
효	-10.1177
기관	-10.1179
▁속에서	-10.1179
▁평가를	-10.1183
by	-10.1184
▁한국어	-10.1186
▁채널	-10.1197
▁England	-10.1207
▁형태	-10.1212
치는	-10.1221
▁뜻	-10.1221
▁상황에	-10.1222
▁within	-10.1226
▁Love	-10.1226
▁캐릭터가	-10.1226
였으나	-10.1231
▁진입	-10.1236
▁의사	-10.1238
▁이후에는	-10.1239
잔	-10.1241
▁써	-10.1249
ling	-10.1251
▁남아	-10.1262
▁염	-10.1274
▁붉은	-10.1275
웅	-10.1277
력이	-10.1282
▁HP	-10.1283
▁황제	-10.1291
▁분노	-10.1292
년간	-10.1293
▁included	-10.1298
26	-10.13
im	-10.1306
ka	-10.1306
▁가정	-10.1308
▁폐	-10.1309
▁동료	-10.131
and	-10.1317
▁면	-10.132
으니	-10.1324
리가	-10.1324
▁When	-10.1327
클	-10.1328
▁몸	-10.1328
▁애니	-10.1335
▁따른	-10.1337
▁방식으로	-10.1337
▁사건이	-10.1338
▁거야	-10.1342
(1	-10.1343
▁background	-10.1345
거리	-10.1353
▁평범한	-10.1357
▁중이다	-10.1367
▁what	-10.1367
▁뒤로	-10.1369
택	-10.1372
▁되며	-10.1374
▁탈락	-10.1378
▁끝까지	-10.138
な	-10.1382
▁차지	-10.1391
▁만들었다	-10.1405
▁구매	-10.1405
.(...)	-10.1409
세가	-10.141
▁눈을	-10.141
▁California	-10.1413
때문에	-10.1422
▁업그레이드	-10.1422
▁내부	-10.1423
▁때부터	-10.1426
▁So	-10.1427
▁빌	-10.1428
▁팀을	-10.1431
▁non	-10.1434
▁엄청나게	-10.1435
▁맡았다	-10.1438
▁major	-10.1443
▁옛	-10.1446
ti	-10.1447
▁특성	-10.1452
▁자신	-10.1452
염	-10.1452
▁색	-10.1454
▁벨	-10.146
슬	-10.146
▁make	-10.1461
▁그들의	-10.1462
▁born	-10.1464
겠다고	-10.1465
▁됐다	-10.1466
▁죽	-10.1468
명으로	-10.1468
-3	-10.1469
▁미사일	-10.1471
빌	-10.1475
화에서는	-10.1476
▁실험	-10.1486
▁삭제	-10.1487
▁씨	-10.1487
▁향해	-10.1488
▁떨어져	-10.1494
▁대비	-10.1495
교육	-10.1497
▁뭔가	-10.15
▁특별	-10.15
▁문제로	-10.1501
}	-10.1503
▁We	-10.1503
공격	-10.1506
▁길을	-10.1509
랜드	-10.1515
05	-10.152
▁옥	-10.1522
▁King	-10.1531
▁시점에서	-10.1535
align	-10.1541
▁내용이	-10.1543
ca	-10.1546
카드	-10.1548
99	-10.1552
섭	-10.1553
▁again	-10.1553
▁1981	-10.1555
▁book	-10.1559
▁인기를	-10.156
▁이것이	-10.1561
▁main	-10.1562
▁거리	-10.1566
죽	-10.157
▁소리를	-10.1571
▁자동차	-10.1574
▁나이트	-10.1574
으로는	-10.1575
▁위로	-10.1576
▁100%	-10.1584
▁파티	-10.1586
▁인기가	-10.1589
▁received	-10.1592
료	-10.1596
▁son	-10.1598
하니	-10.1604
▁Air	-10.1609
▁pre	-10.1609
▁생존	-10.1609
▁처음에는	-10.161
▁완성	-10.1613
~19	-10.1625
▁덜	-10.1628
율	-10.1628
힐	-10.1628
29	-10.163
▁내용을	-10.1632
ul	-10.1635
▁side	-10.1636
▁늘	-10.164
▁겨우	-10.1646
▁꾸준히	-10.1654
▁Australian	-10.1655
욱	-10.1657
▁원래는	-10.166
▁상대적으로	-10.1661
▁끝	-10.1665
▁women	-10.1669
캐	-10.1671
▁form	-10.1675
▁version	-10.1677
▁가게	-10.1685
▁Music	-10.1687
▁바탕으로	-10.1689
▁뉴욕	-10.1691
▁스킬을	-10.1691
▁젊은	-10.1692
▁설계	-10.1693
▁걸로	-10.1704
▁died	-10.1704
▁지상	-10.1713
▁District	-10.1722
니아	-10.1723
per	-10.1723
▁제외	-10.1733
▁않기	-10.1736
▁보여주는	-10.1738
▁정규	-10.1741
▁third	-10.1742
▁검사	-10.1744
▁푸	-10.1745
지역	-10.1751
하였으나	-10.1752
▁액션	-10.1757
▁않으며	-10.176
▁f	-10.1761
men	-10.1766
▁인정	-10.1769
몽	-10.1778
▁Street	-10.1781
▁연합	-10.1781
▁환경	-10.1782
▁담	-10.1784
▁per	-10.1785
▁공중	-10.1789
▁도움이	-10.179
▁부대	-10.1791
▁신경	-10.1795
▁여행	-10.1795
▁원하는	-10.1798
▁먹는	-10.1799
▁없으며	-10.1803
▁흔히	-10.1808
▁수준의	-10.1813
사의	-10.1814
취	-10.1818
▁different	-10.182
▁힘들다	-10.1821
▁전자	-10.1824
35	-10.1824
▁지도	-10.1827
▁로드	-10.183
▁맞아	-10.183
▁덤	-10.183
▁제공	-10.183
▁필	-10.1833
▁녹	-10.1834
rs	-10.1837
▁보여	-10.184
관리	-10.1842
▁water	-10.1844
상을	-10.1846
위에	-10.185
▁없게	-10.1852
전을	-10.1853
▁업	-10.1857
も	-10.1857
하므로	-10.1864
▁과	-10.1869
▁1979	-10.1869
▁service	-10.1869
▁시장	-10.1879
▁산업	-10.1888
▁얼굴	-10.1894
50	-10.1896
만원	-10.1897
▁판단	-10.19
▁동일한	-10.1903
▁이야기가	-10.1903
▁통과	-10.1904
▁퍼	-10.1904
당한	-10.1905
ina	-10.1908
▁지적	-10.1908
▁배경으로	-10.1912
▁메이	-10.1914
▁미래	-10.1921
▁행	-10.1922
▁very	-10.1927
부터는	-10.1929
▁통일	-10.1933
었던	-10.1936
자와	-10.1936
▁곳에서	-10.1937
리는	-10.1937
▁속도가	-10.1943
▁1950	-10.1945
▁칠	-10.1949
춘	-10.1953
련	-10.1953
▁주연	-10.1955
▁핵	-10.1959
▁케	-10.1969
▁게임이	-10.197
▁카이	-10.197
▁record	-10.1972
▁성인	-10.1972
▁장착	-10.1975
▁지명	-10.1978
▁제거	-10.1983
▁추정된다	-10.1983
▁붕괴	-10.1987
▁코너	-10.1988
▁near	-10.1989
▁Canada	-10.2
▁범	-10.2002
▁길이	-10.2005
▁뒷	-10.2009
▁노력	-10.2022
▁땅	-10.2022
▁children	-10.2024
▁Con	-10.2035
▁By	-10.2039
▁북한	-10.2047
▁못해	-10.2049
▁솔로	-10.2051
ting	-10.2051
▁되	-10.2051
▁리더	-10.2059
정도	-10.2062
▁정리	-10.2063
▁보도	-10.2064
▁연주	-10.2068
ong	-10.2074
▁성격	-10.2074
way	-10.2079
▁포켓몬	-10.2081
▁지닌	-10.2087
▁뿐이다	-10.2087
젠	-10.2088
▁생성	-10.2093
▁속에	-10.2094
ah	-10.2096
▁비록	-10.2098
▁그녀를	-10.2098
까지는	-10.2099
▁머리를	-10.2104
▁핵심	-10.2106
▁떠나	-10.2112
▁고양이	-10.2114
▁building	-10.2122
▁해석	-10.2123
더라도	-10.2123
▁레전드	-10.2123
▁점령	-10.2124
▁중에서도	-10.2126
▁옆에	-10.2134
▁왼쪽	-10.2139
▁떨어진	-10.214
▁이미지	-10.2143
......	-10.2147
li	-10.2147
▁무기를	-10.2151
레이	-10.2154
좌	-10.2158
▁반복	-10.2162
흐	-10.2162
▁George	-10.2169
▁떨어지는	-10.217
▁45	-10.2178
▁브랜드	-10.2181
▁often	-10.2186
▁클래스	-10.2193
▁적에게	-10.2194
▁Canadian	-10.2201
습니다	-10.2203
름	-10.2204
▁village	-10.2205
▁추가된	-10.2208
▁취	-10.221
▁악마	-10.2211
。	-10.2216
▁상대를	-10.222
▁개봉	-10.2223
에만	-10.2225
▁엔	-10.2225
▁묘사	-10.2229
▁등등	-10.2232
책	-10.2233
부대	-10.2233
▁자동	-10.2235
▁보컬	-10.2237
▁것이었다	-10.224
▁기관	-10.224
lo	-10.2245
▁만에	-10.2247
하기로	-10.2249
▁체	-10.2249
▁마지막으로	-10.2253
▁유명	-10.2254
▁온갖	-10.2254
▁않았고	-10.2255
KBS	-10.2258
▁보상	-10.226
—	-10.2261
▁원거리	-10.2264
▁강제	-10.2266
▁방해	-10.2268
균	-10.227
▁시행	-10.2271
▁공항	-10.2277
텐	-10.229
▁top	-10.2291
▁누가	-10.2299
▁William	-10.2303
자로	-10.2303
▁쓴다	-10.2305
▁아무래도	-10.2307
▁활약을	-10.231
니까	-10.2311
31	-10.2316
▁자기가	-10.2327
▁Road	-10.2329
▁학원	-10.233
▁개그	-10.2333
▁종족	-10.2333
▁파일	-10.2339
▁이들	-10.2344
인이	-10.2345
덴	-10.2345
▁Church	-10.2345
den	-10.2346
▁암살	-10.2347
tic	-10.2347
▁north	-10.235
▁쉬운	-10.2352
▁분리	-10.2353
ko	-10.2353
▁개의	-10.2354
▁봉인	-10.2355
이었으나	-10.2364
쪽	-10.2365
▁해제	-10.2366
로서의	-10.2372
▁Award	-10.2378
▁개통	-10.2379
들로	-10.2382
▁그때	-10.2383
▁방법	-10.2385
36	-10.2388
▁약한	-10.2389
▁접근	-10.2389
▁Red	-10.239
▁행사	-10.2391
▁부인	-10.2394
▁영국의	-10.2396
▁di	-10.2397
▁head	-10.2398
▁ex	-10.2401
▁male	-10.2402
▁James	-10.2408
▁India	-10.2409
▁support	-10.2414
지가	-10.2416
り	-10.2426
딩	-10.2428
▁지배	-10.243
▁이해	-10.2441
▁가까이	-10.2442
시의	-10.2443
▁간다	-10.2447
없는	-10.2449
rd	-10.245
ted	-10.2452
▁go	-10.2457
く	-10.2458
보다도	-10.2461
ut	-10.2462
▁경쟁	-10.2463
만한	-10.2465
이면	-10.2472
▁센터	-10.2476
▁엄마	-10.2476
▁맞춰	-10.2477
롱	-10.2482
▁홀	-10.2485
66	-10.2485
▁자원	-10.2489
▁불러	-10.2493
▁상위	-10.2494
▁way	-10.2496
▁대응	-10.2497
▁우승을	-10.2497
▁개조	-10.2501
▁벤	-10.2503
▁상태가	-10.2509
▁중단	-10.2511
았다	-10.2518
▁we	-10.2518
▁전투에서	-10.2529
▁best	-10.2529
▁중간에	-10.2534
▁country	-10.2535
▁의원	-10.2535
ga	-10.2535
▁Black	-10.2538
▁마음	-10.2541
▁마크	-10.2542
▁short	-10.2542
▁채용	-10.2543
▁those	-10.2544
▁그리스	-10.2544
▁경계	-10.2547
▁David	-10.2548
)"	-10.2552
▁살짝	-10.2553
▁당시에는	-10.2555
▁기체	-10.2558
▁처음부터	-10.2558
▁late	-10.2559
山	-10.2559
▁더블	-10.2565
▁성적	-10.2566
▁부상	-10.2573
▁서브	-10.2573
시마	-10.2574
▁pro	-10.2583
ol	-10.2586
▁마법사	-10.2587
▁폰	-10.2588
▁환	-10.2594
sh	-10.2607
▁잭	-10.2609
▁걱정	-10.261
▁연계	-10.261
ang	-10.261
▁걸어	-10.2615
었는데	-10.2615
▁쓰지	-10.2615
ン	-10.2617
▁하나가	-10.2617
▁Do	-10.262
▁와중에	-10.262
되기도	-10.2624
인지라	-10.2626
▁la	-10.2628
▁히트	-10.2628
▁캐	-10.2631
▁기획	-10.2636
▁million	-10.2641
▁site	-10.2642
무라	-10.2645
▁직	-10.2648
▁구역	-10.2654
▁얻은	-10.2655
징	-10.266
he	-10.2665
▁그게	-10.2667
▁넘어	-10.267
▁덱	-10.2671
▁Army	-10.2673
▁사장	-10.2675
75	-10.2676
▁표시	-10.2676
▁있으므로	-10.2692
▁하나를	-10.2692
▁기독교	-10.2693
▁sub	-10.2693
레스	-10.2696
▁마나	-10.2706
▁내내	-10.271
▁군인	-10.2719
▁사실이	-10.2719
틀	-10.2723
▁잡	-10.2724
▁제로	-10.2732
▁궁	-10.2736
▁받게	-10.2736
▁led	-10.2737
▁만든다	-10.2742
▁주인공이	-10.2743
▁카운터	-10.2744
▁갤러리	-10.2749
▁car	-10.2754
대가	-10.2755
▁구단	-10.2756
▁1978	-10.2758
▁외에	-10.2759
time	-10.2767
▁그것을	-10.2768
▁x	-10.2772
▁플레이어가	-10.2773
▁언론	-10.2774
▁나타나	-10.2775
▁came	-10.2778
가지	-10.2783
▁모른다	-10.2784
밍	-10.2784
▁얼음	-10.2784
▁Car	-10.2785
▁범죄	-10.2786
지고	-10.2787
▁students	-10.2788
▁일종의	-10.2788
▁극장판	-10.2791
▁MP	-10.2793
려는	-10.2794
▁그렇다고	-10.2795
▁추정	-10.2799
버리는	-10.2806
대는	-10.2809
▁사람들을	-10.2813
▁게임의	-10.2823
▁1972	-10.2823
맛	-10.2824
기사	-10.2831
▁조건	-10.2832
39	-10.2832
▁오픈	-10.284
▁오른쪽	-10.2842
▁정당	-10.2844
▁만들고	-10.2845
▁나쁜	-10.2848
▁말도	-10.285
기술	-10.2854
▁공작	-10.2856
▁타이틀	-10.2859
한국	-10.2863
▁Ha	-10.2865
ana	-10.2868
▁total	-10.2871
▁작	-10.2871
▁Club	-10.2874
▁power	-10.2876
▁싶어	-10.2879
▁moved	-10.288
ness	-10.2881
▁군주	-10.2881
▁Paul	-10.2893
▁개편	-10.2893
less	-10.2895
%	-10.2897
▁much	-10.2897
▁보여주었다	-10.2905
▁모아	-10.2906
▁팀은	-10.2909
▁했다고	-10.2909
▁놓고	-10.2912
량이	-10.2912
▁살고	-10.2913
▁오랜	-10.2916
것이	-10.292
▁사실은	-10.2923
▁자리에	-10.2924
되었으나	-10.2927
▁계속해서	-10.2928
▁민족	-10.2931
▁내에	-10.2932
▁title	-10.2933
▁육	-10.2943
▁en	-10.2953
▁본선	-10.2954
솔	-10.2955
▁곳이	-10.2955
▁남부	-10.2955
▁FA	-10.2959
▁희생	-10.2959
▁회전	-10.296
▁헬	-10.2963
마리	-10.2963
▁네이버	-10.2966
▁입은	-10.2966
▁것이라는	-10.2969
▁싶은	-10.2972
▁America	-10.2975
▁인사	-10.2976
▁동일	-10.2986
ni	-10.2986
▁황금	-10.2989
▁많았다	-10.2991
▁1974	-10.2994
\	-10.2995
▁무리	-10.2996
▁않아서	-10.2997
▁멀리	-10.3003
▁그럴	-10.3004
▁흡수	-10.3006
▁감정	-10.3015
시장	-10.3021
▁미드	-10.3021
io	-10.3024
▁데이터	-10.3024
▁1976	-10.3028
ya	-10.3028
▁내려	-10.3037
▁통한	-10.304
되었던	-10.3041
▁역으로	-10.3045
회의	-10.3046
▁확률로	-10.3049
되었는데	-10.3053
!)	-10.3056
▁장면	-10.3058
金	-10.306
▁확률이	-10.3061
▁Na	-10.3063
▁폴란드	-10.3065
▁분명	-10.3067
▁높이	-10.3072
ts	-10.3078
▁아웃	-10.308
지원	-10.308
▁1973	-10.3084
ha	-10.3085
▁다리	-10.3087
▁among	-10.3087
▁가입	-10.309
▁꿈	-10.3091
▁전략	-10.3092
▁이상한	-10.3096
04	-10.3096
▁father	-10.3097
▁produced	-10.3102
▁From	-10.3104
앙	-10.3106
▁카메라	-10.3109
▁인간의	-10.3111
32	-10.3111
▁최초	-10.3112
원이	-10.3116
▁General	-10.3117
au	-10.3117
▁바이	-10.312
▁편집	-10.312
▁케이	-10.3123
▁Royal	-10.3123
폭	-10.3124
▁시나리오	-10.3125
▁록	-10.3135
▁완료	-10.3135
▁충돌	-10.3135
▁기념	-10.3146
▁멸망	-10.3147
례	-10.3159
▁주력	-10.316
▁위하여	-10.316
▁쌍	-10.3161
▁라이	-10.3161
이었지만	-10.3163
▁사례	-10.3163
▁추가되었다	-10.3167
▁여름	-10.3168
▁행동을	-10.3171
▁형제	-10.3172
▁Association	-10.3175
▁man	-10.318
(2	-10.3187
▁오는	-10.3188
▁대미지	-10.3191
푸	-10.3192
▁감독이	-10.3194
▁role	-10.3196
스키	-10.3198
▁완	-10.3198
컵	-10.3198
▁태양	-10.3199
▁중심	-10.3199
영화	-10.3202
▁소련	-10.3203
55	-10.3204
▁가문	-10.3205
▁딜	-10.3211
▁화염	-10.3213
▁con	-10.3214
▁취임	-10.3216
▁공을	-10.3217
▁1945	-10.3223
▁서울특별시	-10.3223
▁에이	-10.3224
▁활약	-10.3224
▁카페	-10.3225
▁제국의	-10.3228
▁행성	-10.3228
▁생겼다	-10.324
세트	-10.324
▁존재하는	-10.3242
▁끝내	-10.3246
▁general	-10.3246
▁옷	-10.3255
▁괴물	-10.3255
어서	-10.3259
》(	-10.3264
화를	-10.3264
▁프로듀서	-10.3264
46	-10.3266
▁연습	-10.3269
人	-10.3271
▁공포	-10.3273
▁지나	-10.3274
▁필요하다	-10.3275
▁written	-10.3276
▁take	-10.328
▁때문인지	-10.3283
ac	-10.3283
▁단어	-10.3284
▁그동안	-10.3285
▁·	-10.3286
이지	-10.3288
▁만난	-10.3289
▁right	-10.3294
▁France	-10.3297
▁인터뷰	-10.3298
나무	-10.3299
38	-10.3299
▁데리고	-10.3299
▁보급	-10.33
37	-10.3302
▁전체적으로	-10.3303
▁들어가는	-10.3303
▁쪽	-10.3306
▁그녀가	-10.3307
▁소재	-10.3311
얼	-10.3314
▁방법이	-10.3316
▁닥터	-10.3322
는지	-10.3324
do	-10.3325
▁되자	-10.3325
▁타임	-10.3331
▁자리	-10.3332
싱	-10.3332
▁덕에	-10.3333
▁어차피	-10.3334
▁은퇴	-10.3335
▁순위	-10.3344
▁six	-10.335
▁대장	-10.3351
▁Party	-10.3351
▁협력	-10.3354
▁Se	-10.3356
line	-10.3356
▁이름의	-10.3361
▁경험	-10.3364
▁대결	-10.3372
▁south	-10.3375
▁공간	-10.3376
▁현재의	-10.3377
▁실행	-10.3379
▁Records	-10.338
▁order	-10.3382
▁열심히	-10.3386
▁심각한	-10.3387
▁한화	-10.3387
▁1977	-10.3388
▁지금까지	-10.339
▁Act	-10.3392
▁신체	-10.3394
▁Ar	-10.3396
▁히어로	-10.3398
▁하던	-10.3403
이긴	-10.3403
라인	-10.3406
▁Dr	-10.3407
렸다	-10.3411
ron	-10.3412
▁말한	-10.3414
ex	-10.3417
▁period	-10.342
▁나오는데	-10.3421
▁상대의	-10.3421
▁신규	-10.3421
sen	-10.3421
ial	-10.3423
▁추진	-10.3423
탁	-10.3427
▁무대	-10.3427
▁2023	-10.343
65	-10.343
▁맡은	-10.3434
▁부분은	-10.3441
▁재생	-10.3442
▁적도	-10.3445
▁age	-10.3447
▁단지	-10.3455
▁트리	-10.3457
▁특	-10.3459
냐고	-10.346
큐	-10.3464
▁이하	-10.3464
되자	-10.3468
▁사거리	-10.3469
▁노래를	-10.3472
▁기자	-10.3478
▁논	-10.3479
▁왕국	-10.3484
▁일부러	-10.3484
98	-10.3485
▁하기도	-10.3486
56	-10.3488
▁득점	-10.3493
▁조각	-10.3494
▁아이템을	-10.3494
▁영상을	-10.3496
*	-10.3496
간의	-10.3497
▁와서	-10.3497
▁Hall	-10.3501
58	-10.3504
▁33	-10.3511
33	-10.3512
군이	-10.3513
▁even	-10.3514
▁함정	-10.3515
혁	-10.3516
500	-10.3519
ized	-10.3519
▁방송을	-10.352
で	-10.3521
무기	-10.3524
▁관계를	-10.3525
44	-10.3526
하긴	-10.3529
▁1975	-10.3529
▁50%	-10.3529
▁생각하는	-10.353
▁마찬가지	-10.353
됨	-10.3536
▁왕조	-10.3536
정보	-10.3537
였는데	-10.3538
▁장식	-10.354
▁그만큼	-10.3543
▁생물	-10.3544
▁Division	-10.3547
▁그렇지	-10.355
▁다수	-10.3551
▁말고	-10.3556
▁없었던	-10.3557
▁기회를	-10.3563
▁무한	-10.3564
▁채로	-10.3566
▁Bo	-10.357
▁수입	-10.3571
▁지하철	-10.3571
▁안되는	-10.3574
▁관심을	-10.3576
▁못할	-10.3577
▁land	-10.3578
▁성능이	-10.3579
다면	-10.3587
▁고전	-10.3588
▁꼬	-10.3589
▁정치인	-10.3591
mer	-10.3598
▁species	-10.3598
▁video	-10.3599
▁해방	-10.3599
▁거부	-10.36
드는	-10.3601
이라서	-10.3602
▁브라질	-10.3602
▁요청	-10.3604
▁정상	-10.3605
out	-10.3607
▁바다	-10.361
▁혁명	-10.3614
▁차례	-10.3616
사와	-10.3619
▁쓰이는	-10.3622
▁(1	-10.3622
▁중국의	-10.3622
▁제도	-10.3635
▁출장	-10.3635
▁With	-10.3636
▁추측	-10.3636
▁교회	-10.3637
월부터	-10.3638
낸	-10.364
▁1971	-10.3642
▁사건을	-10.3644
▁become	-10.3646
그룹	-10.3647
ally	-10.3649
▁베트남	-10.365
▁판정	-10.3651
▁went	-10.3655
ham	-10.3656
▁충전	-10.3657
▁비교	-10.3658
▁작성	-10.3659
▁시티	-10.3661
ance	-10.3663
67	-10.3665
▁유저	-10.3666
▁아무런	-10.3668
▁하다가	-10.3671
착	-10.3672
데다	-10.3682
▁t	-10.3683
▁얼굴을	-10.3683
▁잡지	-10.3683
으로써	-10.3684
혈	-10.3686
49	-10.3688
▁가격	-10.369
▁Sa	-10.3692
▁Press	-10.3692
▁위해서는	-10.3695
▁사쿠라	-10.3698
▁하나인	-10.3699
▁복수	-10.3702
압	-10.3703
▁의견이	-10.3703
▁전달	-10.3703
▁즉시	-10.3707
▁love	-10.3709
에겐	-10.371
ん	-10.3711
▁귀족	-10.3715
▁목적으로	-10.3716
▁통제	-10.3719
▁습격	-10.3721
▁차이	-10.3722
▁방어력	-10.3724
▁지역의	-10.3726
▁아무도	-10.3726
▁킬	-10.3727
▁소울	-10.373
radius	-10.3735
ish	-10.3736
▁때의	-10.3741
▁given	-10.3747
뿐	-10.3748
▁Other	-10.3748
▁순식간에	-10.3749
화가	-10.375
▁둔	-10.3755
▁빛	-10.3755
일에는	-10.3755
-4	-10.3757
▁파리	-10.3759
▁거대	-10.3761
▁판타지	-10.3762
▁부족한	-10.3765
▁많고	-10.3771
ら	-10.3772
▁보여준	-10.3774
▁지역에	-10.3776
적이고	-10.3777
굴	-10.3777
벤	-10.378
▁다니는	-10.3783
▁사이의	-10.3784
▁보이고	-10.3785
▁패시브	-10.3786
▁종합	-10.3788
▁케이스	-10.3788
▁사과	-10.3791
し	-10.3796
▁후에는	-10.3798
▁가드	-10.3799
▁European	-10.3799
▁law	-10.3804
▁표준	-10.3807
▁공부	-10.3807
▁응	-10.3813
▁그다지	-10.3821
▁쿠키	-10.3821
right	-10.3824
▁방향으로	-10.3825
▁나오	-10.3826
▁근무	-10.3826
▁직전	-10.3826
▁어쩔	-10.3835
▁본격적으로	-10.3839
▁i	-10.3846
허	-10.385
▁쪽으로	-10.3851
▁비하면	-10.3852
장으로	-10.3855
▁Ra	-10.3855
▁일어난	-10.3855
▁무시	-10.3856
▁북부	-10.3857
▁이론	-10.3858
스킬	-10.3858
▁홍보	-10.3858
▁font	-10.3859
응	-10.3859
▁쓰기	-10.386
▁싸우는	-10.3864
해진	-10.3868
대의	-10.3871
▁코드	-10.3873
▁공격이	-10.3875
▁정말로	-10.3878
▁폐지	-10.3884
▁돌파	-10.3884
▁옵션	-10.3885
▁보이며	-10.3888
켄	-10.3892
▁First	-10.3893
▁그에	-10.3895
▁의미가	-10.3897
▁일본어	-10.3898
▁승격	-10.3899
{	-10.3902
▁허용	-10.3903
▁old	-10.3907
▁서버	-10.3908
▁1968	-10.3913
▁난이도가	-10.3915
▁눈이	-10.3915
子	-10.3917
86	-10.3919
▁피해자	-10.3925
▁등록	-10.393
▁스페셜	-10.3931
마루	-10.3932
▁떠	-10.3935
▁박사	-10.394
▁수준으로	-10.3942
홀	-10.3947
▁수치	-10.3948
▁150	-10.395
▁활	-10.3951
▁그것도	-10.3954
▁독일의	-10.3956
▁방향	-10.3958
▁폭탄	-10.3959
▁공화국	-10.396
▁사용하면	-10.396
▁community	-10.3967
하러	-10.3968
셔	-10.3975
▁인수	-10.3978
88	-10.3981
▁아파트	-10.3989
▁레이저	-10.399
▁저항	-10.399
▁처치	-10.3991
▁항공	-10.3992
▁36	-10.3993
▁using	-10.3997
▁히로인	-10.3998
▁development	-10.3999
▁방법을	-10.3999
▁작사	-10.4
ff	-10.4004
▁최악의	-10.4005
▁디지털	-10.4007
78	-10.4007
▁당한	-10.4009
▁various	-10.401
닝	-10.4013
▁공주	-10.4015
▁유명하다	-10.4016
▁저격	-10.4017
▁These	-10.402
▁대규모	-10.402
▁오프닝	-10.4021
pa	-10.4024
▁라이벌	-10.4029
아이	-10.4033
▁프	-10.4035
▁감독의	-10.4036
▁사냥	-10.4042
▁건강	-10.4043
▁임무	-10.4044
▁next	-10.4044
▁고급	-10.4046
▁왔다	-10.405
▁아무것도	-10.405
▁Or	-10.405
▁들어간	-10.4052
낼	-10.4054
る	-10.4054
ba	-10.4055
▁자신과	-10.4059
▁바람	-10.4063
▁성능	-10.4069
로써	-10.4072
▁정도는	-10.4085
리를	-10.4086
만으로	-10.4087
64	-10.4089
▁논란	-10.4089
▁항	-10.409
▁머	-10.409
빛	-10.4091
▁width	-10.4093
▁있긴	-10.4098
▁데스	-10.4101
▁UEFA	-10.4106
▁쓰인다	-10.4118
ル	-10.4124
▁장갑	-10.4125
▁법률	-10.4125
▁트랙	-10.4126
▁사람도	-10.4127
겠지만	-10.4129
제를	-10.4129
▁치고	-10.4129
▁정확히	-10.4133
▁다이	-10.4134
▁혼자서	-10.4136
▁그런지	-10.4137
▁교환	-10.4138
▁1969	-10.414
▁비슷하게	-10.4142
▁나의	-10.4142
▁opened	-10.4142
▁아침	-10.4145
▁올려	-10.4148
기와	-10.415
▁근	-10.415
▁이들이	-10.415
▁의식	-10.4152
었지만	-10.4155
▁태어났다	-10.4164
▁크리스	-10.4167
▁선수가	-10.4167
▁Ma	-10.4167
▁등과	-10.4168
▁단계	-10.4173
▁수리	-10.4173
▁Robert	-10.4176
핑	-10.4178
에게도	-10.418
き	-10.4182
▁Order	-10.4182
▁녹음	-10.4183
▁Council	-10.4184
▁문자	-10.419
▁넘는	-10.4193
등급	-10.4194
▁소멸	-10.4196
▁가사	-10.4198
▁먼	-10.4204
▁엄	-10.4206
▁장르	-10.4212
▁대기	-10.4214
였으며	-10.4214
▁문을	-10.4214
▁가스	-10.4215
▁드디어	-10.4215
★	-10.4215
▁들어서	-10.4215
▁기절	-10.4217
▁al	-10.422
륜	-10.4228
▁두산	-10.4229
▁랭크	-10.4231
▁먹	-10.4235
▁패치로	-10.4236
▁말이다	-10.4236
▁커버	-10.4237
▁출처	-10.424
ell	-10.4248
ey	-10.425
▁전술	-10.4253
냈다	-10.4259
field	-10.426
▁Living	-10.4261
▁변경되었다	-10.4264
▁성격이	-10.4267
▁몰래	-10.4267
95	-10.4273
▁Lo	-10.4273
▁견제	-10.4275
size	-10.4275
▁having	-10.4276
▁엄청	-10.4277
▁post	-10.4277
34	-10.4277
▁저지	-10.4278
▁철도역	-10.4278
▁넓은	-10.4279
▁소재로	-10.428
97	-10.4281
▁방문	-10.4288
▁Best	-10.4289
▁international	-10.4289
▁부정	-10.4289
▁오늘	-10.4289
▁마이클	-10.4291
▁때에는	-10.4291
ig	-10.4291
듯이	-10.4295
자리	-10.4295
▁장치	-10.4296
▁투표	-10.4299
▁말해	-10.4299
풀	-10.43
▁이용하여	-10.43
▁안전	-10.4305
▁패러디	-10.4309
▁기능을	-10.4311
나라	-10.4312
▁대만	-10.4318
폰	-10.4321
▁실제로는	-10.4322
▁통신	-10.4322
▁스킨	-10.4322
▁조종	-10.4325
▁Indian	-10.4326
▁깊은	-10.4327
▁목숨을	-10.4331
▁방식	-10.4333
▁Green	-10.4335
▁지휘	-10.4335
되었지만	-10.4336
con	-10.4346
42	-10.4349
▁란	-10.4357
ke	-10.4359
▁이들의	-10.436
▁확보	-10.4362
헤	-10.4365
놓고	-10.4366
잡	-10.4366
▁대로	-10.4367
▁평화	-10.4368
63	-10.4375
▁갓	-10.4377
▁형성	-10.4377
▁inline	-10.438
▁기록을	-10.438
▁폭	-10.4383
▁created	-10.4385
▁것이라	-10.4385
▁주전	-10.4388
▁쳐	-10.4391
▁원정	-10.4392
▁커	-10.4394
▁서부	-10.4394
▁이로	-10.4398
ス	-10.44
▁합류	-10.44
▁단일	-10.4402
▁등급	-10.4409
▁Union	-10.4409
▁Un	-10.4409
▁오버	-10.441
▁해당하는	-10.4411
▁Ka	-10.4411
▁음식	-10.4413
57	-10.4416
▁g	-10.4419
▁몸이	-10.442
▁Roman	-10.442
▁반응을	-10.442
상의	-10.4426
▁제안	-10.4426
bo	-10.4431
▁Art	-10.4432
▁뒤를	-10.4433
▁장군	-10.4433
▁빼	-10.4435
▁공군	-10.4437
▁본인도	-10.4437
▁못하게	-10.4444
▁started	-10.4444
▁v	-10.4448
Re	-10.445
▁포지션	-10.4452
▁설득	-10.4452
칼	-10.4454
▁필드	-10.4456
▁돌진	-10.4458
▁맡고	-10.4458
▁대륙	-10.446
▁안에서	-10.4463
ung	-10.4463
▁이후로는	-10.4465
▁자살	-10.4468
▁멀티	-10.447
▁1967	-10.4473
▁live	-10.4475
▁역전	-10.4475
▁전력	-10.4476
▁넣어	-10.4477
▁정지	-10.4479
▁house	-10.4481
▁Court	-10.4481
운동	-10.4487
▁해체	-10.4488
▁10%	-10.4489
▁모리	-10.4491
호가	-10.4493
▁UK	-10.4493
▁명이	-10.4493
▁사용자	-10.4496
▁걸쳐	-10.4496
▁개념	-10.4496
▁기반으로	-10.4498
▁언니	-10.4498
지구	-10.4505
kg	-10.4508
랄	-10.4508
수도	-10.4513
▁Football	-10.4515
▁첫번째	-10.4519
▁연방	-10.4519
겨	-10.452
탕	-10.4521
▁임명	-10.4522
les	-10.4522
▁미니	-10.4524
▁했을	-10.4531
▁용병	-10.4531
▁Li	-10.4532
▁모바일	-10.4538
▁쓰면	-10.4538
▁있어야	-10.4539
ver	-10.4539
▁대부분이	-10.4544
▁학	-10.4545
▁상품	-10.4547
▁요소	-10.455
display	-10.4551
▁유저들이	-10.4554
해주는	-10.4554
▁언제나	-10.4557
식을	-10.4558
sa	-10.4565
핀	-10.457
여서	-10.4571
▁website	-10.4571
ek	-10.4572
▁업무	-10.4574
▁식물	-10.4576
▁제품	-10.4577
79	-10.4579
▁And	-10.4579
▁production	-10.458
▁근처에	-10.4581
73	-10.4582
▁스타일	-10.4582
릿	-10.4585
▁여러모로	-10.4592
▁character	-10.4592
▁중요	-10.4597
▁가면라이더	-10.4597
▁몰	-10.4601
▁run	-10.4601
액	-10.4603
ology	-10.461
▁however	-10.4613
▁탑승	-10.4615
▁몸에	-10.4616
▁마음에	-10.4617
▁데미지가	-10.4619
▁sp	-10.462
▁돼	-10.4626
▁전원	-10.4626
ov	-10.4627
dy	-10.4628
▁도중에	-10.4628
▁괴	-10.4629
▁우리가	-10.4629
▁그들은	-10.4629
red	-10.4633
▁Her	-10.4635
▁봄	-10.4637
▁메타	-10.4639
▁구분	-10.464
펜	-10.464
▁왕자	-10.4641
협회	-10.4642
▁MC	-10.4643
▁full	-10.4643
▁전까지	-10.4645
▁예선	-10.4646
▁이후에도	-10.4646
▁계획을	-10.4648
▁예술	-10.4651
▁말할	-10.4651
▁잡기	-10.4658
▁희망	-10.466
▁그럼에도	-10.4662
▁등장했다	-10.4665
di	-10.4667
▁약속	-10.4669
▁이날	-10.4669
▁글을	-10.4672
학급	-10.4674
54	-10.4677
▁라이트	-10.4683
프로	-10.4687
▁보수	-10.4687
▁불린다	-10.4688
▁학살	-10.4691
▁비슷하다	-10.4691
▁한때	-10.4692
▁먹을	-10.4693
▁생각을	-10.4698
▁성공했다	-10.4699
▁보너스	-10.47
▁생각해	-10.47
▁비중이	-10.4703
▁로켓	-10.4703
육	-10.4708
100	-10.4709
▁간의	-10.471
▁개시	-10.4714
▁사운드	-10.4717
77	-10.4717
▁professional	-10.4717
▁Peter	-10.472
▁싫어	-10.4721
▁이쪽은	-10.4722
▁옮겨	-10.4723
▁잠	-10.4725
▁제임스	-10.4725
겐	-10.4726
▁field	-10.4726
개가	-10.4729
▁타자	-10.4734
▁제시	-10.4736
▁분위기	-10.4736
▁중인	-10.474
▁낙	-10.4744
▁Super	-10.4746
일본	-10.4747
선의	-10.4747
▁등에서	-10.4747
▁있었다고	-10.4748
▁Bar	-10.4749
▁마지막에	-10.4751
▁albums	-10.4753
▁경기가	-10.4754
▁시기에	-10.4755
▁military	-10.4757
▁점차	-10.4757
전쟁	-10.4758
했는지	-10.4758
▁Company	-10.4758
▁부분을	-10.4762
▁공급	-10.4762
▁Day	-10.4764
▁그에게	-10.4769
▁네가	-10.4769
▁거라고	-10.477
▁padding	-10.4776
▁널	-10.4777
▁returned	-10.4779
▁대상으로	-10.4781
▁마왕	-10.4783
▁songs	-10.4788
▁가깝다	-10.4788
▁present	-10.479
▁Germany	-10.4792
▁사이가	-10.4793
▁deaths	-10.4795
▁few	-10.4795
▁1963	-10.4795
▁필살기	-10.4796
▁Lake	-10.4799
▁대공	-10.48
▁중학교	-10.48
▁사진을	-10.48
▁특별한	-10.4803
▁수사	-10.4803
▁political	-10.4807
▁막장	-10.4809
선을	-10.481
▁NPC	-10.4811
갤	-10.4814
▁아직도	-10.4814
했었다	-10.4819
▁목표	-10.4819
▁오빠	-10.4821
▁생애	-10.4822
▁지역에서	-10.4823
이야	-10.4823
47	-10.4823
ee	-10.4823
▁자체를	-10.4823
▁times	-10.4824
▁코로나	-10.4828
▁전통	-10.4829
ber	-10.483
수는	-10.4831
▁괜찮은	-10.4834
▁켄	-10.4836
▁air	-10.4844
▁위치를	-10.4846
▁38	-10.4849
▁쪽이	-10.4851
ja	-10.4851
▁announced	-10.4852
함으로써	-10.4856
▁without	-10.4856
계의	-10.4856
▁control	-10.4857
별로	-10.4859
▁방패	-10.486
▁Michael	-10.4861
해졌다	-10.4861
▁얻어	-10.4861
▁규정	-10.4873
▁공격력이	-10.4873
▁Ne	-10.4874
둔	-10.4874
▁지옥	-10.4874
▁접	-10.4875
치가	-10.4879
▁Kingdom	-10.488
▁장수	-10.4881
▁오오	-10.4886
▁대답	-10.489
사건	-10.4892
▁부탁	-10.4893
▁보여주고	-10.4894
▁두번째	-10.4896
▁이것	-10.4899
▁민주당	-10.49
▁느낌이	-10.4901
▁적어도	-10.4902
▁win	-10.4903
▁보장	-10.4904
43	-10.4905
▁얻는	-10.4907
68	-10.4909
▁똑같이	-10.4911
▁Star	-10.4913
▁장기	-10.4917
▁세계관	-10.4918
▁화면	-10.4922
▁모습은	-10.4923
▁대체로	-10.4924
▁변형	-10.4927
gen	-10.4931
▁위기에	-10.4932
▁크로스	-10.4934
▁통해서	-10.4935
▁버그	-10.4936
▁똑같은	-10.4936
▁곳으로	-10.4936
▁불과	-10.4939
▁턴	-10.4946
▁형사	-10.4948
李	-10.4949
min	-10.4953
▁전직	-10.4954
▁Group	-10.4957
▁찬	-10.4957
▁변호사	-10.4958
▁아니었다	-10.4961
41	-10.4962
▁거기다	-10.4964
▁시민	-10.4967
▁34	-10.4967
멘	-10.4968
▁k	-10.497
▁입학	-10.4973
▁인형	-10.4975
side	-10.4975
▁생일	-10.4976
마을	-10.4977
▁선언	-10.4978
▁연극	-10.498
▁장관	-10.4981
▁정책	-10.4982
▁지급	-10.4984
▁포스	-10.4992
점이	-10.4996
사이	-10.4998
이었는데	-10.4999
▁탄생	-10.5
▁주었다	-10.5004
▁Island	-10.5007
▁Japan	-10.5009
▁1964	-10.501
▁story	-10.5019
▁증명	-10.5028
▁최강	-10.5029
▁당시의	-10.5029
▁Ver	-10.5031
▁적극적으로	-10.5031
칭	-10.5034
▁관계가	-10.5035
85	-10.5037
▁매일	-10.5037
96	-10.5037
▁홈런	-10.5037
▁만족	-10.5042
▁밥	-10.5042
▁Di	-10.5044
▁하드	-10.5044
▁파이널	-10.5046
▁성능을	-10.5049
▁지속적으로	-10.5051
▁밸런스	-10.5052
▁동부	-10.5052
▁열차	-10.5053
va	-10.5054
▁Don	-10.5062
▁예측	-10.5066
▁돌려	-10.5066
▁우려	-10.5068
딘	-10.5068
▁곧바로	-10.5075
주년	-10.5078
▁생각이	-10.5083
엄	-10.5084
▁제법	-10.5086
▁들어간다	-10.5091
▁화이트	-10.5091
▁빠진	-10.5093
▁사람들의	-10.5096
▁고유	-10.5096
62	-10.5098
▁효	-10.51
▁조금씩	-10.51
▁수원	-10.5106
죄	-10.511
wa	-10.5111
측	-10.5114
군을	-10.5119
▁point	-10.512
▁살해	-10.512
▁맞다	-10.5121
▁구출	-10.5123
▁마련	-10.5124
▁수집	-10.5125
▁살인	-10.5125
이라며	-10.5126
되	-10.5128
▁schools	-10.5129
▁부진	-10.5133
▁선물	-10.5133
IC	-10.5136
간다	-10.5138
▁art	-10.5139
▁President	-10.5141
▁Catholic	-10.5141
▁시각	-10.5145
▁지도자	-10.5146
▁전공	-10.5146
69	-10.5148
▁불가능하다	-10.515
▁Year	-10.5151
▁고용	-10.5154
▁전투를	-10.5154
벽	-10.5157
▁보유	-10.5158
사회	-10.5158
▁주지	-10.5159
▁닌자	-10.5168
델	-10.5169
▁대하여	-10.5169
lan	-10.5175
▁웹	-10.5176
▁400	-10.5176
이든	-10.518
▁타워	-10.5182
▁Life	-10.5186
같이	-10.5187
▁하트	-10.5187
▁둘이	-10.5188
▁재판	-10.519
성의	-10.5192
룸	-10.5194
▁울산	-10.5197
▁free	-10.5199
▁널리	-10.5201
▁형태의	-10.521
▁your	-10.5212
한다면	-10.5212
빙	-10.5213
▁교장	-10.5221
▁의도	-10.5221
▁딜러	-10.5222
움	-10.5222
이기에	-10.5222
▁정령	-10.5225
산업	-10.5225
▁입장에서는	-10.5227
▁밖으로	-10.5228
▁돌아온	-10.523
구나	-10.523
▁스킬이	-10.5236
▁1966	-10.5236
▁있었으며	-10.5237
권에서	-10.524
엽	-10.524
▁position	-10.5242
▁셋	-10.5242
▁않았지만	-10.5243
▁센	-10.5245
▁달러	-10.5245
▁그래픽	-10.5246
▁헌터	-10.5247
▁답	-10.5247
병원	-10.5248
뿐만	-10.5251
우리	-10.5253
ᆞ	-10.5257
▁Some	-10.5257
▁스웨덴	-10.5258
▁빠져	-10.5262
▁목적	-10.5265
▁사령관	-10.5267
습	-10.5267
72	-10.5269
시티	-10.5269
▁승강장	-10.5269
た	-10.5272
▁브	-10.5275
져서	-10.5278
▁평가가	-10.5278
▁마리아	-10.5281
▁쉽다	-10.5282
선이	-10.5285
▁기능이	-10.5288
오는	-10.5292
In	-10.5293
▁측	-10.5295
▁신인	-10.5295
▁필수	-10.5298
해진다	-10.5304
▁서술	-10.5307
▁카드가	-10.531
협	-10.531
left	-10.5314
잉	-10.5315
▁축	-10.5316
▁댄스	-10.5317
59	-10.532
▁쉬	-10.532
▁조지	-10.532
▁캐릭터를	-10.5327
▁베이스	-10.5328
pe	-10.5331
▁원소	-10.5332
▁그래	-10.5334
▁works	-10.5338
▁하나는	-10.534
▁재료	-10.5342
보면	-10.5345
은행	-10.5346
▁없었고	-10.5346
▁region	-10.5351
모토	-10.5351
하다고	-10.5352
▁Center	-10.5352
적이	-10.5356
mo	-10.5358
▁짜	-10.5359
▁없으면	-10.536
▁루트	-10.5361
▁엘리	-10.5363
회사	-10.5365
▁전함	-10.5366
po	-10.5371
▁코어	-10.5374
군은	-10.5375
머리	-10.538
▁Charles	-10.5387
51	-10.5388
▁하계	-10.539
53	-10.5395
▁Championship	-10.5395
▁lost	-10.5397
▁알아	-10.54
ice	-10.5401
ium	-10.5402
젤	-10.5403
▁never	-10.5404
▁위험	-10.5406
▁;	-10.5408
▁참전	-10.5408
ville	-10.5411
ating	-10.5411
王	-10.5413
▁여동생	-10.5414
▁대립	-10.5418
▁areas	-10.5421
▁장소	-10.5422
▁견	-10.5426
▁1940	-10.5427
▁끝나고	-10.5428
▁태어난	-10.5429
▁갤럭시	-10.543
▁White	-10.5432
▁스탯	-10.5432
덱	-10.5432
▁맛	-10.5433
▁꺼내	-10.5434
▁1930	-10.5435
▁아내	-10.5436
tra	-10.5436
á	-10.5437
▁말은	-10.544
▁program	-10.5442
▁날개	-10.5447
▁격파	-10.5452
▁문명	-10.5452
▁발언	-10.5453
▁심한	-10.5454
▁한국인	-10.5459
짐	-10.546
하다는	-10.546
▁Bay	-10.5461
▁팬들이	-10.5463
year	-10.5464
▁경영	-10.5465
▁어떻게든	-10.5465
개로	-10.5466
▁Pre	-10.5468
▁테마	-10.5471
▁관통	-10.5472
▁문학	-10.5474
농	-10.5474
▁하거나	-10.5475
▁신청	-10.5478
서를	-10.5483
▁league	-10.5485
▁다운	-10.5486
▁멕시코	-10.5487
-5	-10.5489
▁하더라도	-10.5493
▁죽는	-10.5495
▁곡을	-10.5498
▁나를	-10.5498
▁보낸	-10.5499
▁considered	-10.55
렛	-10.5501
▁recorded	-10.5504
▁사용하여	-10.5508
릉	-10.5509
▁끌고	-10.5512
법을	-10.5517
▁않았던	-10.5519
시키기	-10.5519
▁wrote	-10.5524
골을	-10.5527
▁구입	-10.5528
▁이것을	-10.5528
▁짓	-10.553
속성	-10.5532
▁1965	-10.5533
▁맞지	-10.5535
▁코스	-10.5537
83	-10.5538
end	-10.5538
▁있는지	-10.5538
▁납치	-10.5542
▁달려	-10.5546
▁작중에서	-10.5548
▁제조	-10.5549
▁막기	-10.5549
▁그림자	-10.5551
▁의상	-10.5552
▁church	-10.5555
▁기억을	-10.5556
▁진정한	-10.5556
day	-10.5559
▁크고	-10.5564
짜리	-10.5565
장의	-10.5568
틱	-10.5569
빠	-10.5575
대회	-10.5575
▁준우승	-10.5577
▁기술이	-10.5583
▁track	-10.5584
▁그것이	-10.5584
▁국왕	-10.5586
▁제압	-10.5587
▁Great	-10.5588
▁Men	-10.5589
▁Per	-10.5589
▁회수	-10.5595
▁popular	-10.5595
▁테러	-10.5596
▁구현	-10.5599
▁생활을	-10.56
▁캐릭터로	-10.5601
▁트	-10.5604
▁불법	-10.5604
▁압도적인	-10.5609
▁렌	-10.5614
킨	-10.5614
q	-10.5615
▁집안	-10.5618
▁오토	-10.5618
▁셀	-10.562
▁겨울	-10.562
닉	-10.5621
▁콤보	-10.5622
▁days	-10.5627
겠다	-10.5635
▁특이한	-10.5637
▁병원	-10.5641
▁국도	-10.5642
▁아버지가	-10.5643
▁편이	-10.5648
▁Society	-10.565
▁인터뷰에서	-10.565
▁비난	-10.565
▁세력	-10.5652
za	-10.5653
▁여러가지	-10.5653
▁Lv	-10.5654
▁무력	-10.5654
ino	-10.5655
▁Washington	-10.5655
▁project	-10.5657
▁의지	-10.5657
▁인간이	-10.5658
▁호텔	-10.566
▁깨	-10.566
▁단독	-10.5662
▁네덜란드	-10.5665
▁대상이	-10.5665
▁직원	-10.5666
▁유키	-10.5666
▁최후의	-10.5669
▁평소	-10.5674
▁(2	-10.5674
▁Thomas	-10.5674
찰	-10.5675
▁했으며	-10.5676
▁Po	-10.5677
▁명령	-10.5678
▁쿨	-10.5679
▁막을	-10.5681
럼	-10.5682
▁메가	-10.5687
▁바꿔	-10.5689
▁special	-10.5693
▁joined	-10.5697
▁심판	-10.57
▁과정	-10.57
▁married	-10.5702
▁휴	-10.5704
▁욕	-10.5704
▁국회	-10.5707
ck	-10.5712
▁하니	-10.5714
▁교황	-10.5715
▁지니고	-10.5719
▁캐릭터의	-10.5721
ster	-10.5723
▁저장	-10.5724
▁37	-10.5725
▁Of	-10.5726
으	-10.5726
갔다	-10.5729
▁language	-10.5731
▁every	-10.5732
▁유령	-10.5732
▁달린	-10.5733
▁세대	-10.5737
▁단순한	-10.5738
▁Pa	-10.5738
▁half	-10.5741
▁풀어	-10.5745
▁rock	-10.5747
さ	-10.5748
▁lead	-10.5751
▁플레이를	-10.5758
▁불명	-10.576
▁기초	-10.5761
▁구속	-10.5762
▁픽	-10.5765
▁가시	-10.5766
▁연애	-10.5766
う	-10.5767
세를	-10.5771
▁light	-10.5774
▁않아도	-10.578
▁신의	-10.5783
▁appeared	-10.5783
ists	-10.5783
▁신문	-10.5785
▁신고	-10.5787
▁기기	-10.5789
▁사용하고	-10.579
▁부상을	-10.579
▁설정이	-10.5793
딜	-10.5793
71	-10.5794
버리고	-10.5795
▁런던	-10.5797
,#	-10.5799
▁continued	-10.58
▁지나치게	-10.5801
▁걸려	-10.5802
▁든	-10.5803
▁뻔	-10.5803
▁자신들의	-10.5804
되는데	-10.5804
▁갔다	-10.5806
▁영혼	-10.5807
▁described	-10.581
▁이사	-10.5811
▁미친	-10.5811
▁들은	-10.5811
▁늘어	-10.5811
all	-10.5812
▁역할	-10.5813
▁존재하지	-10.5816
▁작곡가	-10.5818
▁물건	-10.582
▁Am	-10.5821
▁class	-10.5822
▁내는	-10.5822
▁1962	-10.5825
▁Ko	-10.5825
▁일본에서	-10.5826
▁찾기	-10.5829
▁다행히	-10.5833
▁Can	-10.5834
▁AP	-10.5837
▁계약을	-10.5839
▁body	-10.5839
▁무엇보다	-10.5839
▁외국	-10.5841
▁나쁘지	-10.5842
▁SP	-10.5842
▁예능	-10.5847
▁보지	-10.5849
▁한동안	-10.5851
▁예정	-10.5852
▁목소리	-10.5853
▁무적	-10.5854
ius	-10.5855
▁소프트웨어	-10.5856
▁소리가	-10.5857
▁match	-10.5858
▁어디	-10.5863
▁Su	-10.5864
▁입력	-10.5866
▁콘	-10.5869
세계	-10.587
▁쓰레기	-10.5871
..."	-10.5872
▁정확한	-10.5872
곳	-10.5873
▁링	-10.5874
▁숲	-10.5875
음을	-10.5877
▁커뮤니티	-10.5879
off	-10.5882
▁Texas	-10.5882
▁롤	-10.5882
▁형식	-10.5883
루스	-10.5886
묘	-10.5887
▁주변에	-10.5889
ure	-10.5895
▁탱커	-10.5895
ford	-10.5896
▁-2	-10.5898
▁대화를	-10.5899
ence	-10.59
▁불교	-10.5901
▁48	-10.5903
▁오랫동안	-10.5904
▁청소년	-10.5905
▁발음	-10.5906
셀	-10.5909
▁붙어	-10.5914
▁공개된	-10.5915
▁조성	-10.5915
▁Japanese	-10.5915
▁위험한	-10.5924
▁미술	-10.5926
▁갑	-10.5928
▁거리가	-10.5928
▁육성	-10.5929
ow	-10.5929
보단	-10.593
89	-10.593
모리	-10.5933
▁전쟁을	-10.5934
▁마녀	-10.5936
一	-10.5937
▁좌	-10.5941
▁병력	-10.5943
▁팬들은	-10.5944
▁감시	-10.5945
▁반응이	-10.5947
▁지휘관	-10.595
87	-10.5951
▁공격에	-10.5953
▁이들을	-10.5954
▁위협	-10.5954
▁되지만	-10.5954
▁미국에서	-10.596
▁의문	-10.5961
▁체포	-10.5961
ful	-10.5964
▁세이	-10.5964
▁이어지는	-10.5965
(3	-10.5965
▁함선	-10.5969
▁China	-10.5972
▁이집트	-10.5975
▁여왕	-10.5978
▁리메이크	-10.5978
▁문헌	-10.5979
margin	-10.5981
꾼	-10.5983
카이	-10.5984
▁언	-10.5984
▁감사	-10.5984
▁만들기	-10.5985
▁반격	-10.5985
▁다루는	-10.5986
▁흥	-10.5987
▁level	-10.5989
▁하위	-10.5989
▁선배	-10.5991
웨이	-10.5991
▁인생	-10.5995
▁침공	-10.6
▁나와서	-10.6
▁get	-10.6001
먹	-10.6004
ger	-10.6004
▁지금의	-10.6004
겠다는	-10.6004
도시	-10.6006
94	-10.6007
▁최소한	-10.6011
▁groups	-10.6019
▁수학	-10.602
▁군단	-10.602
▁지형	-10.6021
▁착용	-10.6025
▁메이저	-10.6027
▁살아	-10.6027
메이	-10.603
로도	-10.603
www	-10.603
▁정치적	-10.6031
버릴	-10.6033
▁실력을	-10.6033
▁밝혀졌다	-10.6036
▁차라리	-10.6037
▁director	-10.604
▁절반	-10.6041
▁그만	-10.6041
▁education	-10.6042
▁광역	-10.6042
▁공기	-10.6043
▁팩	-10.6045
으면서	-10.6046
▁보며	-10.6047
▁오전	-10.6047
▁갈등	-10.6049
▁불가	-10.605
▁AI	-10.6052
▁쥬	-10.6052
▁있기에	-10.6057
▁운전	-10.606
▁NC	-10.6061
문을	-10.6061
모드	-10.6064
92	-10.6066
조선	-10.6067
▁fire	-10.6068
▁일러스트	-10.6069
▁마음이	-10.6072
▁명칭	-10.6073
▁화력	-10.6074
라이	-10.6076
▁★	-10.6081
▁거래	-10.6081
타이	-10.6081
▁발매된	-10.6084
할때	-10.6092
▁후지	-10.6092
▁맞서	-10.6093
▁감염	-10.6094
틴	-10.6097
tro	-10.6097
▁조준	-10.61
▁크기	-10.61
▁election	-10.6101
▁파일럿	-10.6101
▁되었으며	-10.6101
▁Europe	-10.6101
▁road	-10.6103
▁open	-10.6103
▁수도권	-10.6107
▁스피드	-10.6107
▁천사	-10.6108
률	-10.6109
▁생각하고	-10.6109
동안	-10.611
▁God	-10.6111
이던	-10.6111
기간	-10.6114
▁worked	-10.6118
▁보물	-10.6121
사는	-10.6122
서는	-10.6122
▁취소	-10.6123
▁away	-10.6123
▁similar	-10.6124
▁없음	-10.6126
▁베르	-10.6127
▁호주	-10.6128
▁싸움	-10.613
뉴	-10.6131
▁night	-10.6131
▁성적을	-10.6133
▁효과는	-10.6133
▁스위스	-10.6135
▁엘프	-10.6136
▁컨셉	-10.6137
▁동네	-10.6138
▁영토	-10.6139
▁총리	-10.614
▁써서	-10.6141
▁소화	-10.6144
▁가톨릭	-10.6144
▁숫자	-10.6146
▁어둠	-10.6147
▁연인	-10.6149
▁마침내	-10.6151
▁common	-10.6152
cc	-10.6153
▁넌	-10.6153
▁해금	-10.6158
만큼은	-10.6161
▁확대	-10.6163
▁역사상	-10.6164
▁강제로	-10.6168
▁1920	-10.617
▁상징	-10.6171
데다가	-10.6173
▁돌격	-10.6173
▁동맹	-10.6174
▁design	-10.6174
▁마리오	-10.6174
월에는	-10.6176
단체	-10.6179
▁중반	-10.6181
▁차단	-10.6182
▁상황이다	-10.6184
▁아키	-10.6187
▁아니냐는	-10.619
▁출발	-10.6195
▁중에는	-10.6195
▁20%	-10.6197
▁이중	-10.6199
하이	-10.62
로스	-10.6203
돼	-10.6205
▁솔	-10.6205
▁방법으로	-10.6207
▁기어	-10.6208
▁events	-10.6211
정부	-10.6211
▁PS	-10.6213
▁다섯	-10.6219
▁것인지	-10.6226
중에	-10.6227
트리	-10.6228
▁의미로	-10.6232
76	-10.6237
▁개교	-10.6237
▁현실	-10.624
▁생각보다	-10.6241
우스	-10.6244
▁캐스팅	-10.6245
시설	-10.6246
▁능력은	-10.6251
▁앞두고	-10.6252
▁Central	-10.6253
▁전투기	-10.6255
국가	-10.6255
학원	-10.626
▁힘으로	-10.6262
관계	-10.6262
▁휘	-10.6262
gi	-10.6263
▁round	-10.6263
▁Western	-10.6264
▁말하면	-10.6264
▁양쪽	-10.6264
▁일상	-10.6265
물을	-10.6267
天	-10.6273
버전	-10.6273
▁말로	-10.6274
▁공식적으로	-10.6276
▁실시	-10.6276
▁일도	-10.6277
▁관계로	-10.6277
▁빔	-10.6278
84	-10.628
▁신화	-10.628
ap	-10.628
에서만	-10.628
▁세포	-10.6281
▁보안	-10.6283
▁붙은	-10.6287
객	-10.6287
▁무사	-10.629
▁east	-10.6292
▁인물이	-10.6292
▁불가능	-10.6294
▁나오기	-10.6296
▁바이러스	-10.6299
되었을	-10.63
▁세상을	-10.6302
하라고	-10.6303
ite	-10.6306
비가	-10.6307
▁계승	-10.631
▁주인	-10.6313
▁부터	-10.6314
▁정도가	-10.6317
▁카라	-10.632
라스	-10.6321
▁아름다운	-10.6321
▁본편	-10.6322
▁평타	-10.6322
포인트	-10.6324
지로	-10.6331
▁잡는	-10.6332
▁official	-10.6333
▁stations	-10.6334
▁Team	-10.6335
▁case	-10.6338
中	-10.6339
▁스튜디오	-10.634
ng	-10.6341
▁Part	-10.6342
▁미국인	-10.6345
▁보이	-10.6346
▁1961	-10.6348
사업	-10.6349
▁잃은	-10.6351
▁듀얼	-10.6352
▁developed	-10.6357
▁coach	-10.6358
▁타카	-10.6359
ru	-10.636
쯤	-10.6365
▁트위터	-10.6366
▁제외하고	-10.6367
▁체력을	-10.637
ki	-10.637
▁외에는	-10.6372
것도	-10.6372
▁center	-10.6373
킬	-10.6376
▁웹툰	-10.6378
▁Ba	-10.6379
▁radio	-10.6379
▁에어	-10.6379
▁청년	-10.6379
▁세계의	-10.638
시대	-10.6381
▁founded	-10.6382
ata	-10.6383
ship	-10.6383
▁국립	-10.6387
▁동화	-10.6393
▁관심이	-10.6394
vo	-10.6398
▁요새	-10.6399
▁further	-10.64
비를	-10.6403
▁배신	-10.6404
▁드랍	-10.6406
▁옆	-10.6409
▁알리	-10.641
▁파이어	-10.641
▁안습	-10.6412
▁단순	-10.6413
▁알파	-10.6414
라가	-10.6414
▁이루어진	-10.6417
▁물질	-10.6419
▁폭풍	-10.6419
▁Mac	-10.6425
▁services	-10.6427
부의	-10.6432
원을	-10.6436
▁하나이다	-10.6436
▁이끌고	-10.6436
▁경험치	-10.6436
▁맹	-10.6437
▁addition	-10.6438
호의	-10.6438
▁주민	-10.6442
mar	-10.6445
십	-10.6445
▁completed	-10.6446
▁쥐	-10.6448
▁기원전	-10.6448
▁작용	-10.6449
wood	-10.6451
▁모두가	-10.6451
▁이전의	-10.6452
화된	-10.6453
mon	-10.6455
tor	-10.6457
▁많아서	-10.6458
▁저주	-10.6458
▁DLC	-10.646
▁help	-10.6462
52	-10.6463
▁경향이	-10.6467
▁주기	-10.6467
▁버리고	-10.6472
트를	-10.6475
▁창조	-10.6476
▁전반	-10.6476
▁디스	-10.6477
▁보이지만	-10.6479
▁Du	-10.6481
▁방출	-10.6481
▁잡을	-10.6482
선수	-10.6484
▁밀려	-10.6486
▁debut	-10.6486
▁등은	-10.6486
▁안내	-10.6488
▁race	-10.6489
▁공장	-10.6489
▁간혹	-10.649
▁자신도	-10.649
▁병사	-10.6491
▁1944	-10.6494
▁집에서	-10.6495
▁African	-10.6496
▁정글	-10.6497
▁그렇다	-10.6502
▁중에서는	-10.6505
▁한국에서	-10.6507
▁기지	-10.6507
▁컨텐츠	-10.6508
▁According	-10.6511
하면서도	-10.6512
▁제어	-10.6513
▁죽음을	-10.6514
▁example	-10.652
▁result	-10.6522
▁release	-10.6525
▁페이지	-10.6526
02	-10.6526
▁Is	-10.6529
▁방법은	-10.6534
▁120	-10.6535
▁소비	-10.6538
지마	-10.6539
수록	-10.6543
▁어쨌든	-10.6543
▁64	-10.6545
▁노출	-10.6545
ach	-10.6545
▁농구	-10.6546
▁최다	-10.6547
low	-10.6548
▁Italian	-10.6552
▁전역	-10.6554
개발	-10.6558
▁접촉	-10.6558
▁파견	-10.6558
▁Ni	-10.6559
▁himself	-10.656
끼	-10.6561
▁구축	-10.6562
▁어디까지나	-10.6563
▁III	-10.6568
▁강하게	-10.6569
▁노트	-10.657
▁BGM	-10.6571
세이	-10.6571
▁것이고	-10.6573
▁실력	-10.6573
▁관광	-10.6581
▁점수	-10.6582
▁포탑	-10.6582
▁당해	-10.6584
이상	-10.6586
▁세계에서	-10.6587
▁나타난다	-10.6594
▁핀	-10.6595
▁how	-10.6599
▁important	-10.6599
▁의회	-10.6601
▁42	-10.6601
▁1948	-10.6604
▁대표적으로	-10.6606
▁보일	-10.6609
▁없던	-10.6609
었으나	-10.6611
▁정도다	-10.6611
능력	-10.6614
▁대략	-10.6616
▁미스	-10.6618
▁다음날	-10.6619
▁낼	-10.6622
▁사용되는	-10.6622
▁Richard	-10.6622
▁정확히는	-10.6622
▁회의	-10.6626
▁특기	-10.6627
▁굴	-10.6627
▁늑대	-10.6629
▁마법을	-10.6629
▁결과를	-10.6631
데이	-10.6637
서울	-10.6641
▁건축	-10.6643
▁사용하지	-10.6644
▁누구	-10.6645
▁아크	-10.6647
▁발달	-10.6647
▁teams	-10.6649
▁훗날	-10.6649
▁길드	-10.6649
ik	-10.665
시로	-10.665
▁도착	-10.6652
▁출신의	-10.6653
▁난다	-10.6654
▁한데	-10.6655
▁사용된다	-10.6658
▁추격	-10.6659
▁자매	-10.6659
▁formed	-10.6663
▁n	-10.6664
공사	-10.6665
▁겐	-10.6668
식이	-10.667
당했다	-10.6671
▁행위	-10.6671
폐	-10.6672
▁신라	-10.6673
61	-10.6675
ris	-10.668
렙	-10.6681
▁의미한다	-10.6684
▁잇	-10.6685
▁빠	-10.6687
▁고민	-10.6687
▁초등학교	-10.669
▁이란	-10.6692
스크	-10.6696
타임	-10.6696
부를	-10.6706
▁수십	-10.6707
▁유사한	-10.6708
ization	-10.6709
▁추적	-10.671
였다고	-10.6711
▁터키	-10.6713
▁라이더	-10.6713
▁은행	-10.6714
▁지역을	-10.6715
▁ten	-10.6715
▁걸린	-10.6721
▁부하	-10.6725
▁유로	-10.6726
▁묘	-10.6726
▁Rock	-10.6729
▁안드로이드	-10.6731
▁압박	-10.6732
▁현지	-10.6733
▁반영	-10.6734
▁뮤지컬	-10.6739
▁align	-10.674
▁실력이	-10.6746
▁베스트	-10.6748
▁암흑	-10.675
▁modern	-10.6752
▁있었기	-10.6755
▁게임에서	-10.6755
▁놀	-10.6764
▁business	-10.6768
▁거절	-10.677
받은	-10.6775
▁Pe	-10.6776
イ	-10.6777
▁39	-10.6778
▁While	-10.6779
▁심장	-10.6779
▁마르	-10.6781
▁숨	-10.6782
▁대폭	-10.6783
▁west	-10.6783
▁향상	-10.6788
▁MVP	-10.6788
치를	-10.6788
아웃	-10.6789
느	-10.6792
▁북미	-10.6794
수의	-10.6797
▁클래식	-10.6799
리안	-10.68
▁must	-10.6806
▁Los	-10.6807
▁playing	-10.6812
▁making	-10.6814
분에	-10.6814
▁빌드	-10.6823
눈	-10.6825
꽃	-10.6825
pt	-10.6826
▁75	-10.6827
군에	-10.6827
▁합격	-10.6828
▁이끄는	-10.6831
린다	-10.6831
▁Vol	-10.6833
▁사랑을	-10.6836
세는	-10.6837
▁작품의	-10.6837
▁이상으로	-10.684
▁테스트	-10.6843
▁55	-10.6845
▁개입	-10.6847
▁탱크	-10.6847
▁공유	-10.6847
▁현역	-10.6848
▁이슬람	-10.6848
▁개요	-10.6851
▁수록곡	-10.6852
▁맞게	-10.6852
득	-10.6854
200	-10.6855
▁research	-10.6856
▁Christian	-10.6864
▁파이터	-10.6868
ft	-10.6869
▁퀸	-10.687
ze	-10.687
▁무덤	-10.687
▁활성화	-10.6872
▁훌륭한	-10.6872
▁경기는	-10.6872
▁축제	-10.6873
si	-10.6874
▁죽는다	-10.6875
▁together	-10.6876
▁Grand	-10.6879
▁should	-10.688
멸	-10.6881
성과	-10.6883
▁어린이	-10.6885
▁signed	-10.6887
▁1946	-10.6887
03	-10.6887
제가	-10.6891
는게	-10.6891
▁더더욱	-10.6892
▁Institute	-10.6892
▁별다른	-10.6892
74	-10.6894
?'	-10.6895
달라고	-10.6896
▁푸른	-10.6897
▁개방	-10.6897
ci	-10.6899
81	-10.6902
▁그와	-10.6902
▁음성	-10.6902
▁이길	-10.6903
특	-10.6904
▁전화	-10.6905
▁Mark	-10.6906
원의	-10.6911
▁능력치	-10.6917
▁합성	-10.6921
▁black	-10.6922
center	-10.6927
▁VS	-10.6928
▁가야	-10.6932
인간	-10.6936
▁우리는	-10.6938
▁Ireland	-10.694
뒤	-10.6942
▁종이	-10.6944
등을	-10.6944
▁하늘	-10.6947
▁롱	-10.6947
▁한참	-10.6949
▁지원을	-10.6953
▁$	-10.6953
텔	-10.6954
▁모험	-10.6957
성은	-10.6958
▁Russian	-10.6958
▁자리에서	-10.6959
▁끌	-10.696
▁트레이드	-10.6961
▁총을	-10.6961
▁know	-10.6962
▁DVD	-10.6963
▁나름대로	-10.6964
▁올린	-10.6968
▁사람들에게	-10.6969
▁대개	-10.6969
치기	-10.6976
▁접속	-10.698
▁죄	-10.698
row	-10.6981
▁별개로	-10.6986
▁메탈	-10.6988
▁곽	-10.6989
▁올랐다	-10.6991
▁Academy	-10.6992
▁good	-10.6995
MBC	-10.6995
▁되었다고	-10.6997
日	-10.6997
▁불가능한	-10.6998
▁진영	-10.6998
▁contract	-10.7
we	-10.7003
▁들어갈	-10.7004
▁원본	-10.7005
▁올리는	-10.7007
▁러브	-10.7007
net	-10.7008
▁의료	-10.7008
▁많은데	-10.7009
▁땐	-10.7009
진이	-10.7013
ura	-10.7013
▁잃고	-10.7015
▁증거	-10.7015
▁평이	-10.7016
처리	-10.7017
▁!	-10.7018
▁팬들의	-10.7018
▁옷을	-10.7019
▁파트너	-10.7019
▁선생님	-10.702
▁정복	-10.7021
▁파트	-10.7021
▁제목	-10.7024
▁원인	-10.7026
▁사용해	-10.7027
▁But	-10.7037
▁average	-10.7037
▁바뀐	-10.7039
구를	-10.7039
▁다수의	-10.7039
▁건너	-10.704
▁대미지를	-10.7042
▁카오스	-10.7042
▁구성되어	-10.7043
▁콘서트	-10.7047
▁최강의	-10.7047
▁대사를	-10.7049
▁경기장	-10.7049
our	-10.7053
▁셈이다	-10.7054
▁Ex	-10.7055
▁틀	-10.7056
▁강하다	-10.7056
▁부문	-10.7058
▁임시	-10.7062
▁선수로	-10.7062
공원	-10.7064
해준다	-10.7064
▁나타난	-10.7066
▁mother	-10.7068
조차도	-10.7073
▁미디어	-10.7074
음에도	-10.7075
▁말하며	-10.7077
하기에	-10.7078
▁term	-10.7079
▁기본적인	-10.7079
장은	-10.708
▁소총	-10.7087
▁공격하는	-10.7091
▁어떠한	-10.7091
▁던져	-10.7091
▁아니라고	-10.7092
▁바보	-10.7093
▁소식을	-10.7095
oc	-10.7095
mp	-10.7096
▁Ta	-10.7097
▁떼	-10.7102
▁although	-10.7103
영상	-10.7103
▁찾아가	-10.7104
▁저그	-10.7107
▁Department	-10.7108
▁현재까지	-10.7112
었으며	-10.7113
▁장면을	-10.7114
▁부부	-10.7119
▁요시	-10.712
▁이거	-10.7121
▁과정을	-10.7123
▁함대	-10.7125
▁폭주	-10.7126
▁vocals	-10.7126
▁봐	-10.7127
▁wife	-10.7127
▁지금도	-10.7128
▁KT	-10.713
▁though	-10.7131
▁어둠의	-10.7133
▁다들	-10.7134
▁Law	-10.7134
▁방에	-10.7137
▁명령을	-10.7137
룬	-10.7139
▁episode	-10.7139
▁코치	-10.7141
▁헌법	-10.7141
▁less	-10.7142
▁수업	-10.7142
▁떨어진다	-10.7143
경제	-10.7146
주고	-10.7147
▁이외에도	-10.7149
▁동의	-10.7151
▁once	-10.7152
mb	-10.7154
▁Early	-10.7157
다운	-10.7157
▁others	-10.7157
▁does	-10.7158
▁컨트롤	-10.7158
▁공개되었다	-10.7159
▁가능하며	-10.716
ker	-10.7165
우가	-10.7167
보니	-10.7171
ji	-10.7173
▁소수	-10.7181
▁1958	-10.7183
▁텐	-10.7183
▁소형	-10.7184
사랑	-10.7185
▁제기	-10.7186
of	-10.7188
▁달고	-10.7189
▁거인	-10.7193
▁available	-10.7194
▁Battle	-10.7196
▁박근혜	-10.7196
▁인하여	-10.7198
▁만나게	-10.72
화에	-10.72
▁무역	-10.7201
폴	-10.7205
▁기용	-10.7209
▁고향	-10.7211
짓	-10.7213
번의	-10.7214
▁주도	-10.7215
것을	-10.7215
▁사신	-10.7216
▁차트	-10.7217
▁팬덤	-10.722
▁꾸	-10.7221
▁분위기를	-10.7223
▁실드	-10.7223
▁SS	-10.7224
▁바르	-10.7224
▁사자	-10.7225
▁보여주며	-10.7226
▁전주	-10.7228
▁한정으로	-10.7228
▁갈수록	-10.723
함에	-10.723
▁결코	-10.7231
▁Museum	-10.7232
▁Sea	-10.7233
▁싸움을	-10.7237
▁끼	-10.7237
▁정부는	-10.7237
▁고속	-10.7239
▁1959	-10.7245
よ	-10.7247
▁선수들이	-10.7247
▁짐	-10.7249
▁시체	-10.725
▁오르	-10.725
▁차별	-10.7252
ez	-10.7253
▁돌아가	-10.7254
AC	-10.7257
▁Hill	-10.7259
▁은근히	-10.7259
▁구원	-10.7261
▁Awards	-10.7261
멜	-10.7261
ities	-10.7266
▁당했다	-10.7267
▁장점	-10.7272
팩	-10.7272
비트	-10.7274
▁않는다는	-10.7274
▁EX	-10.7276
베르	-10.7277
▁끌어	-10.7278
▁전에는	-10.7283
▁across	-10.7284
▁해설	-10.7284
따	-10.7285
▁종류	-10.7286
ub	-10.7288
팬	-10.7289
▁가능성도	-10.7295
▁공사	-10.7298
▁Film	-10.73
▁En	-10.73
▁스카이	-10.7301
▁세계를	-10.7302
몰	-10.7304
▁털	-10.7305
▁본다	-10.7305
디아	-10.7307
▁챕터	-10.731
▁고문	-10.731
대상	-10.7311
▁수준이	-10.7313
▁꿈을	-10.7313
▁조절	-10.7314
나이	-10.7317
▁1956	-10.732
▁상관	-10.7321
▁장난	-10.7322
▁교사	-10.7327
▁이주	-10.7335
▁신성	-10.7335
▁points	-10.7337
▁사전	-10.7338
▁놈	-10.7339
▁전형적인	-10.7342
어야	-10.7346
장에서	-10.7346
▁아쉬운	-10.7348
▁눈물	-10.7349
▁화가	-10.735
▁찾는	-10.735
▁갑옷	-10.7351
▁작동	-10.7356
▁태어나	-10.7357
▁올렸다	-10.7357
▁편입	-10.7359
文	-10.736
▁상자	-10.7361
▁construction	-10.7364
렐	-10.7366
▁조연	-10.7366
▁sold	-10.7367
▁허나	-10.7368
▁오직	-10.7368
▁용사	-10.737
▁과거에	-10.7374
ran	-10.7374
って	-10.7375
▁1955	-10.7379
▁Da	-10.7383
▁municipality	-10.7383
▁상향	-10.7384
▁Ro	-10.7385
▁분위기가	-10.7385
▁위주로	-10.7386
▁점이다	-10.7387
▁때려	-10.739
2)	-10.7395
▁공무원	-10.7399
▁방송에서	-10.7401
▁도서관	-10.7401
▁아빠	-10.7402
럴	-10.7405
▁문재인	-10.7405
ney	-10.7405
▁낸	-10.7406
▁human	-10.7407
▁노예	-10.7408
▁사회적	-10.7409
▁얼굴이	-10.7411
보고	-10.7414
▁1943	-10.7414
▁보게	-10.7414
▁대우	-10.7419
자마자	-10.7419
하였는데	-10.742
▁기원	-10.7421
chi	-10.7422
롤	-10.7423
▁우연히	-10.7423
사로	-10.7424
hu	-10.7425
단지	-10.7425
▁Ja	-10.7425
▁일어나	-10.7425
▁응원	-10.7426
▁죽일	-10.7427
▁등장하지	-10.7429
▁탑재	-10.743
▁통산	-10.7431
끼리	-10.7432
▁경고	-10.7436
▁오스트리아	-10.7437
교통	-10.7439
í	-10.7439
▁개정	-10.744
▁Summer	-10.744
▁Sch	-10.7441
있던	-10.7443
▁대충	-10.7444
▁party	-10.7446
맥	-10.7446
);	-10.7448
타로	-10.745
▁결성	-10.7452
▁강력	-10.7455
▁사용하기	-10.7456
▁된다는	-10.7456
▁social	-10.7457
대장	-10.7457
짱	-10.7458
▁회원	-10.7459
▁동영상	-10.7459
port	-10.746
ise	-10.7462
▁규모	-10.7464
▁기회	-10.7465
▁당황	-10.7466
트가	-10.7469
잖아	-10.7469
리오	-10.7471
▁사람에게	-10.7472
▁넣고	-10.7473
▁사라	-10.7474
▁피를	-10.7476
▁young	-10.7478
▁아일랜드	-10.7479
▁확인할	-10.7479
jo	-10.7481
▁아라	-10.7482
▁office	-10.7483
▁팬들	-10.7484
▁통치	-10.7487
▁한쪽	-10.7487
▁Ben	-10.7489
▁see	-10.749
연구	-10.749
▁능	-10.7494
▁락	-10.7494
▁매년	-10.7497
▁유행	-10.7497
▁자동으로	-10.7499
▁교전	-10.7502
▁갖춘	-10.7502
▁레오	-10.7502
▁가짜	-10.7503
▁벗어나	-10.7507
소리	-10.7507
▁감안하면	-10.7507
감을	-10.7509
중앙	-10.7511
▁총기	-10.7511
▁느낌	-10.7513
힌	-10.7514
▁경상북도	-10.7514
▁오사카	-10.7515
▁기동	-10.7515
▁페이	-10.7516
템	-10.752
▁Town	-10.7521
▁절망	-10.7521
▁전진	-10.7522
▁가문의	-10.7523
▁range	-10.7523
▁장교	-10.7524
▁입단	-10.7525
▁없으니	-10.7528
▁return	-10.7529
▁죄다	-10.7531
▁동기	-10.7531
▁모르	-10.7532
▁죽인	-10.7535
▁앱	-10.7535
함과	-10.7536
▁채택	-10.7537
▁쿨타임	-10.7539
sk	-10.754
▁가슴	-10.7542
▁위장	-10.7543
위원	-10.7544
▁Railway	-10.7544
▁process	-10.7546
▁working	-10.7549
▁좋게	-10.7549
▁Zealand	-10.7552
▁가득	-10.7552
▁Spanish	-10.7552
▁아버지의	-10.7553
▁그들이	-10.7559
▁요정	-10.7561
▁current	-10.7565
▁중계	-10.7565
▁서양	-10.7567
▁얼	-10.7571
▁1954	-10.7571
▁목소리가	-10.7571
well	-10.7571
▁음원	-10.7571
▁30%	-10.7573
▁비용	-10.7577
▁있어도	-10.7578
▁무기로	-10.7578
기만	-10.7579
▁기록하며	-10.7579
▁죽어	-10.758
라의	-10.7582
▁제작진	-10.7583
▁홀로	-10.7584
즈의	-10.7585
▁테란	-10.7586
▁전성기	-10.7586
▁불렀다	-10.7588
▁믿고	-10.7589
▁확진자	-10.7591
▁소유	-10.7593
▁화학	-10.7593
▁나가는	-10.7593
▁인증	-10.7595
교회	-10.7596
▁크리스마스	-10.7596
▁환영	-10.7597
▁베이	-10.7598
▁물을	-10.7602
▁보유하고	-10.7604
▁여신	-10.7606
▁great	-10.7619
▁열어	-10.762
▁마침	-10.7621
▁군대	-10.7622
▁밴	-10.7624
▁패션	-10.7627
82	-10.7628
▁1942	-10.763
▁가고	-10.763
▁information	-10.7632
▁이루어져	-10.7633
ab	-10.7639
▁단위	-10.764
하지는	-10.7641
▁내의	-10.7642
▁있었을	-10.7643
▁모양이다	-10.7644
ven	-10.7644
▁뭘	-10.7647
▁anti	-10.7647
▁발생한	-10.7648
ny	-10.765
▁대회에서	-10.765
▁소닉	-10.7651
과학	-10.7651
▁적절한	-10.7652
▁주자	-10.7654
▁이스라엘	-10.7655
▁Har	-10.7655
▁드는	-10.7656
▁포르투갈	-10.7656
휘	-10.7659
▁도주	-10.7661
▁1941	-10.7664
▁융합	-10.7665
▁killed	-10.7666
▁버프를	-10.7667
ning	-10.7669
▁Sun	-10.7669
편에서	-10.767
▁측정	-10.767
하려면	-10.7671
▁누나	-10.7671
▁그것은	-10.7672
▁것이며	-10.7677
▁자랑한다	-10.7678
▁Time	-10.7679
중인	-10.7683
▁실버	-10.7683
▁한다면	-10.7684
▁버렸다	-10.7685
▁기반	-10.7686
▁Republic	-10.7688
▁심하게	-10.769
코가	-10.769
▁그들을	-10.7692
har	-10.7693
▁1.5	-10.7694
▁말하고	-10.7694
보이	-10.7695
▁쿠로	-10.7695
▁1949	-10.7696
▁소드	-10.7696
▁짓을	-10.7697
▁guitar	-10.77
▁악역	-10.7701
▁흥행	-10.7703
▁스마트폰	-10.7704
안타	-10.7706
▁Education	-10.7706
▁뒤에서	-10.7706
▁레벨이	-10.7707
bi	-10.7707
vi	-10.7709
▁살려	-10.7709
▁동원	-10.7709
ay	-10.7711
▁같지만	-10.7712
▁months	-10.7714
▁작가가	-10.7715
▁originally	-10.7717
que	-10.7717
▁쌍둥이	-10.7718
▁외교	-10.7718
▁list	-10.7722
▁가격이	-10.7722
▁Africa	-10.7722
▁치명타	-10.7723
▁시작으로	-10.7723
거야	-10.7724
▁해리	-10.7724
91	-10.7727
▁사건의	-10.773
▁메뉴	-10.7731
▁불꽃	-10.7732
AT	-10.7734
▁모여	-10.7737
▁확률	-10.7738
▁상당	-10.7739
▁되었는데	-10.7739
▁44	-10.7739
▁오해	-10.774
▁행복	-10.7741
▁출현	-10.7745
▁예로	-10.7746
▁습득	-10.7746
하겠다고	-10.7747
▁Sir	-10.7748
▁영역	-10.7749
▁콩	-10.7749
▁mid	-10.775
회에	-10.7752
▁투어	-10.7752
함이	-10.7754
tion	-10.7755
▁얻었다	-10.7757
렁	-10.7757
본부	-10.7759
▁event	-10.7761
▁임무를	-10.7762
▁Te	-10.7762
▁숙	-10.7764
▁몽골	-10.7766
▁네트워크	-10.7768
▁PD	-10.7768
▁아나운서	-10.7772
(4	-10.778
▁들어갔다	-10.7783
▁지진	-10.7786
라이트	-10.7788
▁Pan	-10.7788
▁떨	-10.7788
▁유사	-10.7789
ier	-10.7791
마법	-10.7791
▁충	-10.7791
▁협박	-10.7792
▁학생들	-10.7792
uk	-10.7793
▁때가	-10.7797
▁절대로	-10.7798
▁죽고	-10.78
시가	-10.78
▁전시	-10.78
▁랭킹	-10.7802
▁싸울	-10.7802
호를	-10.7805
▁HD	-10.7806
▁신설	-10.7807
▁OST	-10.7808
▁단점이	-10.7808
▁결과적으로	-10.781
▁정도였다	-10.781
▁농	-10.7811
▁치는	-10.7811
▁기습	-10.7814
▁결승	-10.7818
▁샘	-10.7821
▁비트	-10.7821
▁올라가	-10.7822
▁president	-10.7824
랭크	-10.7827
▁유저가	-10.7828
밤	-10.7828
▁기록한	-10.783
▁뽑아	-10.7832
지에	-10.7832
▁동방	-10.7833
▁지시	-10.7834
▁희	-10.7836
ten	-10.7838
▁항공기	-10.7838
▁너프	-10.7838
▁도발	-10.7838
▁포기	-10.784
윈	-10.7841
▁seen	-10.7842
이었으며	-10.7842
▁소장	-10.7843
▁직전에	-10.7843
▁택	-10.7844
▁불리	-10.7845
▁룬	-10.7845
▁작품이	-10.7846
아파트	-10.7848
▁1947	-10.7848
IS	-10.7848
드라	-10.7853
▁Two	-10.7859
▁맞은	-10.7859
▁김성	-10.7863
▁잡은	-10.7864
▁Force	-10.7866
▁흰	-10.7868
▁권력	-10.7869
▁할아버지	-10.787
▁스타크래프트	-10.7871
▁소위	-10.7871
▁마이너	-10.7872
▁질문	-10.7872
yn	-10.7873
▁코미디	-10.7873
▁appointed	-10.7874
ot	-10.7874
▁performed	-10.7875
▁언급한	-10.7879
▁근처	-10.7879
▁Sp	-10.7881
시오	-10.7882
▁식민지	-10.7882
▁한자	-10.7884
부인	-10.7889
▁둘은	-10.7889
▁혈	-10.7892
스케	-10.7892
▁미군	-10.7896
▁데다가	-10.79
▁낮	-10.7903
▁유우	-10.7903
▁모조리	-10.7907
▁높고	-10.7907
▁재산	-10.7907
▁벌어진	-10.791
뢰	-10.791
렉	-10.791
▁사람들도	-10.7911
▁taken	-10.7912
ator	-10.7912
▁정체를	-10.7913
▁글로벌	-10.7914
▁followed	-10.7914
▁사후	-10.7919
사키	-10.792
ick	-10.792
▁양성	-10.7922
▁Blue	-10.7922
왔다	-10.7927
▁저녁	-10.7928
▁Jo	-10.7929
다보니	-10.7931
▁정부의	-10.7934
▁의무	-10.7938
이랑	-10.794
년만에	-10.7941
▁model	-10.7943
93	-10.7944
▁속하는	-10.7944
▁아메리카	-10.7945
▁DJ	-10.7945
▁금속	-10.7945
오카	-10.7946
▁귀신	-10.7946
▁측면	-10.7947
▁공원	-10.7947
▁media	-10.7949
▁편곡	-10.7951
み	-10.7952
~)	-10.7953
▁히로	-10.7954
▁썼다	-10.7956
▁브레이크	-10.7958
▁성립	-10.7958
▁elected	-10.7959
▁충격을	-10.7961
▁입을	-10.7961
치고	-10.7962
자키	-10.7962
시스	-10.7964
▁어찌	-10.7966
▁완벽한	-10.7967
▁1952	-10.7968
▁前	-10.7968
▁Ch	-10.7968
▁한명	-10.7971
▁힘들	-10.7972
째	-10.7973
▁이탈	-10.7973
▁과연	-10.7974
로드	-10.7974
▁블레이드	-10.7975
▁돈이	-10.7976
▁계기로	-10.7978
▁Night	-10.7979
▁establishments	-10.7981
▁알겠지만	-10.7982
▁학생들이	-10.7983
▁alumni	-10.7984
▁이제는	-10.7985
▁뱀	-10.7986
▁크루	-10.7988
▁츠	-10.7988
▁자랑	-10.7989
▁죽지	-10.7993
▁붙	-10.7994
▁어릴	-10.7998
▁EP	-10.7998
리에	-10.7999
▁전쟁이	-10.8001
▁board	-10.8002
▁감독은	-10.8003
넷	-10.8003
페이	-10.8006
▁보석	-10.8008
ea	-10.801
▁그건	-10.8011
펠	-10.8012
▁수준이다	-10.8013
▁곰	-10.8014
▁뮤직	-10.8014
▁사라졌다	-10.8014
don	-10.8015
검사	-10.8016
▁김영	-10.8017
▁자세히	-10.8019
것으로	-10.8021
▁낮다	-10.8021
▁KBO	-10.8021
▁seven	-10.8023
▁노리	-10.8025
▁들어온	-10.8026
▁받으며	-10.8027
▁1957	-10.8031
▁Martin	-10.8032
▁않도록	-10.8034
▁정신을	-10.8034
▁이재	-10.8035
▁includes	-10.8035
▁적다	-10.8037
qu	-10.8037
▁Chi	-10.8038
ward	-10.8038
.”	-10.8039
▁노인	-10.804
▁불을	-10.8041
▁구하기	-10.8041
▁치유	-10.8041
▁천재	-10.8046
▁수호	-10.8047
▁companies	-10.8047
셋	-10.8053
니스	-10.8055
▁경기에	-10.8056
구역	-10.8056
밥	-10.8057
▁쉽지	-10.8058
차원	-10.8059
▁come	-10.8062
▁최종보스	-10.8063
▁Ho	-10.8068
▁과거의	-10.8069
–18	-10.807
▁둘째	-10.8072
▁Ga	-10.8073
속도	-10.8074
▁좋을	-10.8074
▁품	-10.8077
▁피터	-10.8078
▁계정	-10.8078
▁창작	-10.808
▁반발	-10.8082
▁관측	-10.8083
▁성공한다	-10.8084
▁시즌을	-10.8084
old	-10.8084
▁Big	-10.8087
앤	-10.8089
▁체제	-10.809
▁나아가	-10.8092
▁위치에	-10.81
▁일원	-10.8101
▁없는데	-10.8105
▁들면	-10.8109
데스	-10.811
▁오른	-10.8111
했습니다	-10.8115
▁시간에	-10.8115
▁약간의	-10.8116
▁그러자	-10.8116
국의	-10.8118
▁battle	-10.8119
▁실수	-10.8119
지게	-10.812
res	-10.8122
▁책임	-10.8122
▁features	-10.8123
▁카나	-10.8123
▁사라진	-10.8123
▁아기	-10.8125
▁시대의	-10.8125
▁처형	-10.8126
▁대사가	-10.8129
神	-10.8129
▁사망한	-10.8131
▁찍어	-10.8135
년대에	-10.8135
▁아르헨티나	-10.8137
▁그레이	-10.8139
▁병력을	-10.8139
▁회상	-10.8143
학자	-10.8152
들어	-10.8152
▁이전에는	-10.8156
▁일명	-10.8157
타가	-10.8159
gar	-10.8159
▁내지	-10.8161
▁나나	-10.8162
▁뜻을	-10.8162
▁THE	-10.8162
▁녀석	-10.8162
▁빛을	-10.8163
▁Lu	-10.8164
▁눈물을	-10.8166
▁고통	-10.8167
▁작품을	-10.8169
▁Smith	-10.817
▁무시하고	-10.8171
▁했다는	-10.8173
▁간부	-10.8173
▁오래된	-10.8173
장비	-10.8174
▁착	-10.8176
▁발행	-10.8176
아가	-10.8178
▁이내	-10.8181
ho	-10.8183
당해	-10.8184
▁게이트	-10.8185
▁영업	-10.8186
▁당하는	-10.8186
SS	-10.8187
▁바위	-10.8188
▁전부터	-10.8188
단의	-10.819
-20	-10.8192
전대	-10.8192
▁적응	-10.8194
▁모르고	-10.8195
▁그럼	-10.8197
▁죽이고	-10.8201
▁크리	-10.8203
▁되어서	-10.8205
▁Old	-10.8206
▁보관	-10.8207
호는	-10.8207
▁Land	-10.8207
대전	-10.8207
▁윈도우	-10.8208
능	-10.8208
러스	-10.8209
▁박스	-10.8211
▁모션	-10.8212
▁books	-10.8212
lu	-10.8217
▁Station	-10.8222
▁위치해	-10.8223
▁전후	-10.8223
▁등판	-10.8223
▁나이가	-10.8224
▁Saint	-10.8226
tu	-10.8227
퇴	-10.8227
▁41	-10.8227
▁진보	-10.8228
제로	-10.8229
하라는	-10.823
▁Chicago	-10.8236
▁계급	-10.8243
▁건지	-10.8244
▁곤	-10.8246
▁프레임	-10.8247
지방	-10.8248
▁부분에	-10.8249
쥬	-10.8251
▁홈런을	-10.8252
▁윌	-10.8254
▁Brown	-10.8256
▁거리를	-10.826
▁무료	-10.8261
▁캠페인	-10.8261
드의	-10.8261
▁시청자	-10.8263
▁대다수	-10.8263
▁43	-10.8272
▁Henry	-10.8273
▁전철	-10.8274
▁Top	-10.8276
lar	-10.8276
▁현장	-10.8276
(!)	-10.8277
▁위키	-10.8278
드라마	-10.8279
미터	-10.8281
▁손으로	-10.8282
▁요원	-10.8283
부에	-10.8284
▁욕을	-10.8286
▁스코어	-10.8287
▁제작된	-10.8287
▁사용했다	-10.8288
▁아이콘	-10.829
ett	-10.829
▁목표로	-10.829
▁루이	-10.8292
▁뛰어	-10.8293
비아	-10.8293
8%	-10.8294
▁eventually	-10.8298
▁출력	-10.8298
▁남긴	-10.8298
▁보여줬다	-10.8299
▁보존	-10.8305
▁시절의	-10.8305
▁기록이	-10.8308
▁아닌가	-10.8309
▁레어	-10.8309
▁Home	-10.8309
▁shows	-10.831
▁real	-10.8311
되지만	-10.8312
▁매치	-10.8314
▁요괴	-10.8319
▁gave	-10.8319
▁시스템을	-10.8321
ix	-10.8322
▁court	-10.8324
▁Sports	-10.8325
▁곡이	-10.8326
▁자는	-10.8328
▁리가	-10.8328
트의	-10.833
▁hand	-10.833
▁Radio	-10.8331
드가	-10.8332
▁대표팀	-10.8332
실점	-10.8335
▁BBC	-10.8337
▁이외의	-10.8337
▁author	-10.8338
▁유이	-10.8338
로만	-10.8338
▁나치	-10.834
OS	-10.8341
▁키스	-10.8341
ま	-10.8343
▁결승전	-10.8345
▁daughter	-10.8346
ide	-10.8348
▁용도로	-10.8349
▁자가	-10.835
▁Games	-10.8351
▁곳은	-10.8352
▁올라	-10.8352
열차	-10.8353
려면	-10.8356
미가	-10.8356
op	-10.8356
▁전신	-10.8357
▁1953	-10.8358
▁명을	-10.8359
리의	-10.836
▁너의	-10.836
▁novel	-10.8363
빵	-10.8364
nes	-10.8366
道	-10.8366
ring	-10.8367
ini	-10.8368
▁비싼	-10.8368
랭	-10.8369
▁철수	-10.837
둘	-10.8373
▁없	-10.8377
▁동굴	-10.8377
▁통계	-10.8378
필드	-10.8378
▁위기	-10.8379
air	-10.838
▁젠	-10.838
▁47	-10.8381
▁패턴이	-10.8381
▁왕이	-10.8382
▁남편	-10.8382
▁합체	-10.8382
▁화를	-10.8384
vin	-10.8384
▁Most	-10.8384
▁상호	-10.8386
▁Vi	-10.8387
over	-10.8387
▁게이	-10.839
▁either	-10.8391
▁증	-10.8394
▁기후	-10.8394
▁전작	-10.8396
전이	-10.8397
상으로	-10.8401
▁Bi	-10.8403
▁버린다	-10.8404
▁순수	-10.8407
sp	-10.8408
줘	-10.8409
▁featured	-10.841
▁전체를	-10.8411
▁리드	-10.8416
▁보자	-10.8417
▁남쪽	-10.8417
▁조약	-10.8419
田	-10.8419
▁white	-10.8424
▁죽음의	-10.8424
▁기분	-10.8424
▁추락	-10.8427
ou	-10.843
사단	-10.843
▁누적	-10.843
▁펜	-10.8431
장에	-10.8431
▁비상	-10.8434
▁Tour	-10.8434
▁근거	-10.8439
▁도구	-10.8439
▁사제	-10.8441
▁Minister	-10.8441
▁오리	-10.8441
ens	-10.8443
▁탈퇴	-10.8443
▁그러한	-10.8444
▁가졌다	-10.8445
▁항의	-10.8445
▁Line	-10.8447
최	-10.8448
▁고스트	-10.8449
첩	-10.8453
▁것만	-10.8453
▁특집	-10.8454
▁몰라도	-10.8457
▁핫	-10.8458
▁논리	-10.8459
▁1939	-10.846
▁레이드	-10.846
▁부상으로	-10.846
▁매니저	-10.8461
▁largest	-10.8463
ara	-10.8463
픽	-10.8464
▁서포터	-10.8465
▁말자	-10.8465
▁피아노	-10.8466
▁그것	-10.8467
역을	-10.8468
포스	-10.8469
▁십	-10.847
왕의	-10.8472
▁종목	-10.8472
자들이	-10.8472
▁brother	-10.8472
회를	-10.8475
▁날려	-10.8476
계열	-10.8476
300	-10.8477
▁꼴	-10.8477
ü	-10.8479
닌	-10.8481
▁로버트	-10.8483
▁생긴다	-10.8483
▁Official	-10.8483
▁아마도	-10.8485
컷	-10.8487
▁해적	-10.8487
▁change	-10.849
▁빌리	-10.8492
식으로	-10.8493
▁고생	-10.8496
▁빙	-10.8496
티스	-10.8497
▁검색	-10.8499
<	-10.85
화의	-10.8502
ped	-10.8503
▁얻기	-10.8505
▁현상	-10.851
연대	-10.8512
▁날아가	-10.8512
▁발언을	-10.8512
휴	-10.8513
▁https	-10.8515
▁제작한	-10.8518
▁블록	-10.8518
▁시로	-10.852
▁병기	-10.8524
▁rest	-10.8526
▁임대	-10.8527
▁그녀	-10.8527
▁받기	-10.8527
▁귀환	-10.8528
▁새벽	-10.853
▁throughout	-10.8531
▁집을	-10.8532
so	-10.8533
▁구글	-10.8534
▁항복	-10.8538
▁화물	-10.8542
▁있음을	-10.8543
yl	-10.8543
혀	-10.8544
▁부분에서	-10.8545
▁메리	-10.8546
▁이용해서	-10.8547
▁아니라는	-10.8548
▁위반	-10.855
▁그렇지만	-10.8551
▁이혼	-10.8552
▁이용하는	-10.8553
▁아카데미	-10.8554
▁Sam	-10.8555
▁Gu	-10.8556
원으로	-10.8557
▁remained	-10.8558
▁이번에는	-10.8558
▁마약	-10.8559
▁싫어하는	-10.8562
▁Up	-10.8564
▁은하	-10.8565
▁close	-10.8567
부가	-10.8571
▁stage	-10.8571
▁이상을	-10.8571
▁사태	-10.8572
▁룰	-10.8572
▁녹색	-10.8572
▁옛날	-10.8573
▁생명	-10.8574
▁차원	-10.8574
▁나오며	-10.8575
▁뜻하는	-10.8577
▁발생한다	-10.8577
부분	-10.8577
었을	-10.8579
▁campaign	-10.858
▁put	-10.8581
▁명예	-10.8587
▁파이	-10.8588
▁본체	-10.8588
▁원인이	-10.8589
▁Tom	-10.859
▁증언	-10.8591
▁조치	-10.8593
▁된다고	-10.8595
▁마이크	-10.8595
논	-10.8597
▁수상자	-10.8598
▁railway	-10.8599
▁그대	-10.8599
▁연료	-10.8601
▁랩	-10.8602
II	-10.8603
ins	-10.8603
國	-10.8603
플레이	-10.8605
대에	-10.8605
background	-10.8607
▁설립된	-10.8607
▁매장	-10.8608
▁연구소	-10.8609
▁사망했다	-10.861
▁후반에	-10.861
▁제주	-10.861
▁정류장	-10.8611
kin	-10.8612
승을	-10.8612
▁(3	-10.8615
▁작가의	-10.8616
▁노동	-10.8617
▁물론이고	-10.8619
▁근육	-10.8619
▁예정이다	-10.862
▁위력	-10.8625
▁That	-10.8628
▁Mary	-10.8629
▁SM	-10.8631
만은	-10.8632
▁확	-10.8633
▁코믹스	-10.8633
▁정원	-10.8633
▁통상	-10.8641
▁업로드	-10.8642
이었다고	-10.8642
▁Live	-10.8647
▁올라온	-10.8649
▁챔피언십	-10.8651
▁Cha	-10.8652
▁※	-10.8656
▁전면	-10.8657
하고자	-10.8657
▁마력	-10.8658
▁느린	-10.8658
▁주인공의	-10.8662
때는	-10.8664
▁bar	-10.8665
▁directed	-10.8668
▁180	-10.8668
스톤	-10.8669
▁거기서	-10.8672
▁인물로	-10.8674
▁replaced	-10.8676
wi	-10.8677
▁비판을	-10.868
-10	-10.8681
▁역을	-10.8681
▁마시	-10.8681
역으로	-10.8681
권이	-10.8682
▁또다시	-10.8684
▁중요하다	-10.8685
번을	-10.8686
▁performance	-10.8687
▁장면에서	-10.8687
▁배우는	-10.869
▁영상이	-10.8691
▁전멸	-10.8691
▁세상	-10.8692
봐	-10.8693
ified	-10.8693
리온	-10.8695
맹	-10.8696
▁싶다	-10.8697
▁이후의	-10.8697
リ	-10.8699
▁일대	-10.87
du	-10.87
차량	-10.8701
버려	-10.8702
우드	-10.8703
▁동일하다	-10.8704
▁죽기	-10.8707
ions	-10.8713
▁데이	-10.8716
▁바닥	-10.8719
▁low	-10.872
▁("	-10.872
-6	-10.8722
▁buildings	-10.8723
▁합의	-10.8724
light	-10.8725
낸다	-10.8726
▁경유	-10.8727
▁Public	-10.8727
▁단편	-10.8727
▁당선	-10.8727
▁국제공항	-10.8729
▁프리큐어	-10.873
시키	-10.873
▁레이스	-10.8731
▁혜	-10.8732
▁시점	-10.8734
▁route	-10.8734
▁들었다	-10.8736
4%	-10.8737
시험	-10.8737
하시	-10.8738
▁빛의	-10.8739
▁좌우	-10.8741
▁고구려	-10.8744
▁Although	-10.8745
▁탄약	-10.8747
ative	-10.8748
▁Ca	-10.8748
▁분야	-10.8748
놓은	-10.8749
바이	-10.8751
▁일본인	-10.8752
▁99	-10.8752
▁언제	-10.8754
털	-10.8755
타수	-10.8757
▁고작	-10.8757
▁사막	-10.8757
번이	-10.8759
▁톰	-10.8763
▁Science	-10.8766
낙	-10.8768
▁멜	-10.8768
▁Since	-10.8768
▁좋고	-10.8769
▁육상	-10.8771
접	-10.8771
ク	-10.8772
소녀	-10.8772
토스	-10.8772
전에서는	-10.8773
▁찾을	-10.8774
▁아닐	-10.8774
▁우크라이나	-10.8774
▁차지했다	-10.8775
▁많지	-10.8775
베이	-10.8775
▁플랫폼	-10.8781
▁헨리	-10.8781
「	-10.8782
三	-10.8784
▁명중	-10.8785
君	-10.8787
▁hit	-10.8793
▁동시	-10.8795
▁논의	-10.8798
▁지점	-10.8798
▁점수를	-10.8798
▁선전	-10.88
▁부른	-10.8801
▁기병	-10.8802
▁그러다가	-10.8802
▁Government	-10.8804
▁아이를	-10.8805
소를	-10.8805
▁웃	-10.8807
▁초반에는	-10.8808
▁•	-10.8808
▁강조	-10.8811
▁Out	-10.8812
으므로	-10.8815
▁업체	-10.8815
▁환자	-10.8818
▁만날	-10.8819
US	-10.8821
▁관찰	-10.8821
▁거듭	-10.8822
▁복구	-10.8824
▁아머	-10.8825
AP	-10.8827
▁간신히	-10.883
▁스톤	-10.8832
당하고	-10.8833
▁궁극기	-10.8833
▁고기	-10.8835
▁조건을	-10.8837
▁죽이는	-10.8839
▁Tu	-10.8839
▁Major	-10.8843
판에서는	-10.8844
▁못했고	-10.8845
▁인류	-10.8846
▁움직이는	-10.8849
▁초창기	-10.8849
▁커맨드	-10.8851
mi	-10.8852
▁의미를	-10.8855
▁패스	-10.8857
▁머리가	-10.8858
▁탐	-10.8858
▁밝혀진	-10.8859
▁칭	-10.8861
으로서의	-10.8863
▁개혁	-10.8863
편의	-10.8865
옹	-10.8865
활	-10.8866
▁골든	-10.8866
▁Series	-10.8867
▁피해량	-10.8867
▁티어	-10.887
▁크로	-10.887
▁자격	-10.8871
▁Mc	-10.8872
맵	-10.8873
▁오지	-10.8873
▁1951	-10.8879
▁받	-10.8879
▁체결	-10.8879
회말	-10.888
上	-10.888
▁피부	-10.8881
▁삼국지	-10.8883
리와	-10.8885
▁남북	-10.8888
▁나면	-10.8888
▁ground	-10.889
였기	-10.8891
▁upon	-10.8892
▁수출	-10.8893
▁characters	-10.8895
▁forces	-10.8898
▁Long	-10.8899
▁kt	-10.8899
나와	-10.8901
▁inter	-10.8901
▁유닛이	-10.8901
느냐	-10.8903
▁나카	-10.8904
▁기종	-10.8904
▁Lord	-10.8906
▁가로	-10.8908
▁느낄	-10.8912
▁위원	-10.8913
▁속한다	-10.8913
▁포함되어	-10.8914
▁이성	-10.8914
head	-10.8915
▁로즈	-10.8915
▁스승	-10.8915
주차	-10.8915
영이	-10.8916
활동	-10.8917
▁킥	-10.892
▁사이드	-10.8921
▁멤버들이	-10.8923
▁메모리	-10.8925
▁이것도	-10.8926
▁far	-10.8927
▁Che	-10.8929
▁단점	-10.893
음악	-10.8931
▁계통	-10.8932
▁찍은	-10.8932
▁자극	-10.8932
▁숨겨진	-10.8934
감독	-10.8935
▁아리	-10.8936
석을	-10.8938
▁번개	-10.8941
▁김민	-10.8941
▁정비	-10.8941
▁같아	-10.8942
트라	-10.8942
▁Service	-10.8942
ding	-10.8943
▁딴	-10.8945
▁고백	-10.8946
▁팝	-10.8947
▁게임에	-10.8949
▁Paris	-10.895
▁몬스터를	-10.8951
ud	-10.8951
▁front	-10.8952
▁윌리엄	-10.8955
▁비행기	-10.8957
led	-10.8958
▁재현	-10.896
▁river	-10.8961
▁above	-10.8962
▁Second	-10.8965
▁Over	-10.8968
▁터	-10.8969
사에	-10.897
▁독특한	-10.8972
▁온다	-10.8976
▁sent	-10.8976
▁많기	-10.8977
▁하락	-10.8979
▁아트	-10.8979
▁해주는	-10.8979
ani	-10.898
▁Game	-10.898
▁신부	-10.8981
▁캐릭터는	-10.8981
▁배포	-10.8982
han	-10.8984
다리	-10.8987
▁introduced	-10.8987
▁이래	-10.8987
▁높아	-10.8988
▁없다면	-10.8988
▁부품	-10.899
기업	-10.8992
▁don	-10.8994
▁백작	-10.8996
▁이상이	-10.8997
▁자막	-10.9
)·	-10.9
+1	-10.9003
pur	-10.9003
▁판정이	-10.9004
▁600	-10.9005
▁내리	-10.9005
▁할머니	-10.9006
▁연대	-10.9012
▁시계	-10.9012
▁가치가	-10.9013
▁대처	-10.9016
▁말하자면	-10.9018
콜	-10.9019
▁함수	-10.9019
▁Mr	-10.902
▁컬러	-10.9023
▁책을	-10.9024
▁시청	-10.9027
▁가이	-10.903
▁유형	-10.903
▁Florida	-10.9032
▁커다란	-10.9033
팀이	-10.9034
▁뿌리	-10.9035
▁type	-10.9036
▁당일	-10.9038
되어서	-10.9039
berg	-10.904
▁맞으면	-10.9041
ph	-10.9042
ric	-10.9045
▁소속사	-10.9045
▁아시안	-10.9046
!'	-10.9047
▁Wales	-10.9047
▁주목	-10.9047
▁1938	-10.9049
▁데에	-10.905
▁person	-10.9053
▁뮤직비디오	-10.9054
▁아래에	-10.9056
▁49	-10.9056
것은	-10.906
▁상상	-10.906
▁이미지가	-10.906
년생	-10.906
▁걸고	-10.9061
▁분량	-10.9063
▁다음에	-10.9063
시절	-10.9063
해지는	-10.9063
▁편이라	-10.9064
▁행보	-10.9065
▁효과로	-10.9065
▁이기	-10.9065
val	-10.9067
qui	-10.9067
▁안된다	-10.9071
▁개설	-10.9071
▁대통령이	-10.9071
▁가볍게	-10.9071
심을	-10.9072
東	-10.9073
aw	-10.9075
ep	-10.9076
프리	-10.9076
▁다음으로	-10.9077
▁효율이	-10.9078
스티	-10.9081
▁이어서	-10.9082
▁발생하는	-10.9083
으로도	-10.9084
ray	-10.9088
당한다	-10.9089
케이	-10.909
▁가끔씩	-10.909
였을	-10.9092
인들이	-10.9092
▁반란	-10.9095
▁지어	-10.9096
▁발매되었다	-10.9097
▁원수	-10.9097
!!!	-10.9098
▁환승	-10.9098
▁Northern	-10.9098
▁마드리드	-10.91
우는	-10.9106
▁러시아의	-10.9108
자인	-10.9108
▁eight	-10.9108
▁AC	-10.9109
▁인근	-10.911
▁흑인	-10.911
▁본사	-10.9111
▁신사	-10.9112
ical	-10.9112
▁성능은	-10.9112
MA	-10.9113
▁돼지	-10.9113
▁트럼프	-10.9115
▁Chinese	-10.9116
ries	-10.9117
ita	-10.9119
▁새롭게	-10.9119
▁측에서	-10.9121
▁캡틴	-10.9122
▁마린	-10.9122
for	-10.9122
▁플레이오프	-10.9124
▁Irish	-10.9126
▁맘	-10.9128
▁성향	-10.9129
▁적당히	-10.913
▁전반적으로	-10.9131
ize	-10.9132
주면	-10.9132
▁Ru	-10.9137
▁왕의	-10.9138
▁정부가	-10.9139
▁최신	-10.9139
잘	-10.9139
ei	-10.9141
바르	-10.9142
▁들을	-10.9145
▁training	-10.9146
정치	-10.9147
▁완벽하게	-10.9147
ves	-10.9149
▁아카	-10.915
だ	-10.9151
og	-10.9151
▁플레이어의	-10.9153
▁넣는	-10.9153
▁Ju	-10.9153
▁수용	-10.9155
포를	-10.9156
투스	-10.9157
▁●	-10.9159
て	-10.9161
▁초기에는	-10.9163
ile	-10.9165
▁시스템이	-10.9166
▁일어나는	-10.9168
▁영향으로	-10.9168
싸	-10.9169
▁Soviet	-10.9173
▁1:1	-10.9173
▁레알	-10.9175
동에	-10.9177
▁후보로	-10.918
▁du	-10.9181
▁속으로	-10.9183
▁문장	-10.9185
▁designed	-10.9185
▁마구	-10.9188
▁잘못된	-10.9188
▁시절에	-10.9189
▁제정	-10.9189
▁입장을	-10.9189
▁l	-10.919
놈	-10.9191
랜	-10.9192
▁출판	-10.9194
▁usually	-10.9194
▁자폭	-10.9196
▁어깨	-10.9196
어로	-10.9196
▁SF	-10.9197
▁격투	-10.92
탄을	-10.9202
▁당연한	-10.9202
▁KIA	-10.9203
▁체계	-10.9206
▁복장	-10.9209
▁의견을	-10.9212
▁내고	-10.9212
연합	-10.9212
▁출연한	-10.9214
▁기존에	-10.9214
▁지우	-10.9216
바라	-10.9216
▁지식	-10.9216
잠	-10.9218
ラ	-10.9218
▁Pat	-10.9219
▁잠수함	-10.922
▁정착	-10.922
▁유물	-10.922
▁감정을	-10.9222
▁사건으로	-10.9224
▁상점	-10.9224
▁후속작	-10.9225
리우스	-10.9225
▁봐야	-10.9225
▁폭력	-10.9226
▁자체의	-10.9231
▁안티	-10.9231
▁크리티컬	-10.9232
▁수술	-10.9232
▁하차	-10.9232
▁1919	-10.9236
▁출마	-10.9236
▁동쪽	-10.9236
▁협회	-10.9237
car	-10.9237
▁세이버	-10.9237
▁입수	-10.9237
▁주말	-10.9238
▁고수	-10.9241
▁외모	-10.9242
▁Mor	-10.9243
▁세운	-10.9245
▁피해가	-10.9246
▁곳을	-10.9246
1%	-10.9247
▁유비	-10.9248
▁Under	-10.925
ps	-10.9253
▁쿄	-10.9255
れ	-10.9259
▁Ge	-10.9262
역에서	-10.9262
▁양산	-10.9263
샷	-10.9263
▁지켜	-10.9266
들이다	-10.9267
▁붙여	-10.9267
▁집으로	-10.9273
ag	-10.9273
▁방식이	-10.9274
렬	-10.9276
▁의견	-10.9276
▁경주	-10.928
괴	-10.9281
▁태국	-10.9286
▁라운드	-10.9288
▁거짓	-10.9288
▁꺾	-10.929
▁leading	-10.9291
▁호수	-10.9291
▁컷	-10.9294
▁엑스	-10.9295
▁got	-10.9297
▁토르	-10.9297
▁구성된	-10.9298
▁65	-10.93
▁당하고	-10.93
▁attack	-10.9303
▁뒤집어	-10.9303
▁w	-10.9306
▁space	-10.9306
▁장점이	-10.9307
▁MS	-10.931
ue	-10.931
▁특성을	-10.9313
▁involved	-10.9313
▁이식	-10.9314
▁주포	-10.9314
▁Greek	-10.9315
주를	-10.9317
▁승부	-10.9317
▁전라남도	-10.9317
American	-10.9318
je	-10.932
내가	-10.9323
▁Gold	-10.9323
▁시내	-10.9323
▁유닛을	-10.9326
감이	-10.9328
▁일족	-10.9328
▁슈팅	-10.9329
조의	-10.9332
▁에너지를	-10.9332
▁댓글	-10.9333
▁수련	-10.9333
▁unit	-10.9334
▁red	-10.9337
▁singer	-10.9338
▁잇는	-10.934
▁Arts	-10.934
▁private	-10.9341
▁면에서	-10.9343
지기	-10.9344
▁결과는	-10.9346
쿨	-10.9346
▁결합	-10.9346
▁않았을	-10.9347
▁가기	-10.9351
▁스톰	-10.9351
브라	-10.9352
▁영주	-10.9354
▁캐논	-10.9354
▁같	-10.9355
▁개체	-10.9355
▁하나도	-10.9358
▁민간	-10.9359
▁죽여	-10.9361
oo	-10.9361
▁우수한	-10.9361
시를	-10.9362
▁태평양	-10.9363
▁화려한	-10.9364
▁라인업	-10.9366
▁당시에	-10.9366
▁몰락	-10.9366
▁출시된	-10.9367
▁정권	-10.9369
량을	-10.9375
▁via	-10.9376
▁리뷰	-10.9376
▁전문가	-10.9376
iz	-10.9377
▁본부	-10.9378
등의	-10.9378
La	-10.9378
▁몽	-10.9378
▁낫다	-10.9381
▁자연스럽게	-10.9383
제국	-10.9383
▁선생	-10.9385
▁덤으로	-10.9385
▁전투에	-10.9386
회차	-10.9386
▁공격할	-10.9387
▁장악	-10.9387
▁취급을	-10.939
▁그러다	-10.9391
스카	-10.9391
▁권총	-10.9391
▁조선의	-10.9392
점으로	-10.9394
▁사라진다	-10.9396
▁관객	-10.9397
▁궤도	-10.9399
▁경상남도	-10.9401
hi	-10.9402
▁스파이	-10.9403
▁준수한	-10.9404
▁넣은	-10.9406
▁college	-10.9407
▁Olympics	-10.9409
▁se	-10.9411
▁지역은	-10.9412
▁스카	-10.9412
▁culture	-10.9412
▁Young	-10.9413
▁재정	-10.9415
▁finished	-10.9417
▁study	-10.9417
▁스펙	-10.9417
▁골을	-10.9418
▁아니며	-10.9419
▁우수	-10.9419
▁사항	-10.9419
▁basketball	-10.9422
▁Lee	-10.9423
▁식의	-10.9424
▁발표했다	-10.9425
ない	-10.9427
▁까지	-10.9427
▁유저들은	-10.9429
▁퀘스트를	-10.9431
▁예산	-10.9432
▁조조	-10.9433
텍	-10.9434
▁칭찬	-10.9436
▁저런	-10.9438
▁처음에	-10.9438
차로	-10.9439
400	-10.9439
▁해안	-10.9439
▁존재를	-10.944
▁rights	-10.9441
▁예전	-10.9442
▁주간	-10.9444
▁정수	-10.9447
▁서쪽	-10.9448
▁하나씩	-10.9449
▁블로그	-10.9449
▁층	-10.945
▁헤이	-10.9452
▁일반인	-10.9455
회에서	-10.9455
핵	-10.9456
받았다	-10.9459
▁헤드	-10.9459
▁인물들	-10.9461
▁밀리	-10.9465
▁브리	-10.9467
▁춤	-10.9467
▁가속	-10.9472
▁언덕	-10.9474
조사	-10.9474
▁료	-10.9476
▁least	-10.9477
▁중립	-10.9478
▁Open	-10.9478
▁color	-10.9479
▁한계	-10.9479
신의	-10.948
▁극장	-10.9483
▁검찰	-10.9484
gg	-10.9485
▁사용이	-10.9486
▁scored	-10.9486
AL	-10.9488
▁자식	-10.9489
▁과목	-10.9489
▁확실한	-10.9489
▁팬들에게	-10.949
▁사망자	-10.9491
▁46	-10.9491
▁Angeles	-10.9492
었다고	-10.9492
셰	-10.9492
▁되기도	-10.9495
▁-3	-10.9498
드를	-10.95
▁start	-10.9503
▁연속으로	-10.9503
나마	-10.9508
▁백제	-10.9509
▁52	-10.951
에서부터	-10.9512
▁후기	-10.9514
▁거짓말	-10.9516
▁후에도	-10.9517
▁bi	-10.9519
▁http	-10.9519
▁음악을	-10.9519
▁체인	-10.9527
▁대원	-10.9528
▁재개	-10.9531
▁위성	-10.9531
▁캐리	-10.9533
질을	-10.9535
짝	-10.9535
▁얻고	-10.9536
800	-10.9536
▁에스	-10.9537
보는	-10.9539
▁하얀	-10.9539
정책	-10.9539
ト	-10.9541
▁Bank	-10.9544
▁운영하는	-10.9545
까지도	-10.9547
▁writer	-10.9548
▁토끼	-10.9549
▁평생	-10.955
▁꼬리	-10.9551
▁일이다	-10.9551
▁불안	-10.9552
▁있	-10.9555
▁싸	-10.9556
▁토벌	-10.9557
▁무게	-10.9558
▁Mexico	-10.956
▁금방	-10.956
득점	-10.9564
▁안타	-10.9565
다니	-10.9569
▁Jack	-10.957
▁외의	-10.9572
▁필리핀	-10.9575
tal	-10.9576
이었기	-10.9576
▁늦게	-10.9577
▁나오면	-10.9578
▁디지몬	-10.958
▁흘러	-10.958
▁모래	-10.9581
어를	-10.9583
가며	-10.9585
▁Frank	-10.9586
▁사도	-10.9587
▁이미지를	-10.9588
▁어려움	-10.959
하더라도	-10.9591
▁Bill	-10.9593
▁added	-10.9594
▁한글	-10.9596
▁section	-10.9596
ica	-10.9597
▁Power	-10.9598
▁우리나라	-10.9603
▁경우에	-10.9603
ors	-10.9603
▁검을	-10.9603
하에	-10.9604
▁FM	-10.9605
▁스프링	-10.9605
▁낫	-10.9605
▁Festival	-10.9606
▁science	-10.9606
▁연합군	-10.9606
▁문제점	-10.9607
▁명칭은	-10.9607
▁lower	-10.9608
▁공공	-10.9609
IN	-10.9611
둥	-10.9614
▁건축물	-10.962
▁신장	-10.9623
▁상업	-10.9626
▁able	-10.9627
")	-10.9632
▁시작하는	-10.9635
▁신호	-10.9635
라고도	-10.9637
▁현상이	-10.9638
▁화살	-10.9638
▁LA	-10.9638
▁논문	-10.9639
▁뜻이다	-10.9639
▁Olympic	-10.964
▁듀	-10.9641
▁Good	-10.9642
▁국적	-10.9644
▁파악	-10.9644
-7	-10.9644
받아	-10.9645
▁가동	-10.9646
▁거주한	-10.9647
@	-10.9647
당하는	-10.9647
▁?	-10.9648
컬	-10.9649
라면서	-10.9651
▁묻자	-10.9651
찌	-10.9653
城	-10.9654
▁전체적인	-10.9654
받는	-10.966
▁전파	-10.966
pro	-10.9661
▁즉위	-10.9664
▁매직	-10.9664
▁예수	-10.9664
▁트럭	-10.9665
▁Ad	-10.9665
▁변환	-10.9669
▁스페이스	-10.9671
▁일제	-10.9673
되거나	-10.9673
▁처벌	-10.9674
安	-10.9674
타점	-10.9674
▁아사	-10.968
with	-10.9681
▁주제에	-10.9683
됩니다	-10.9684
▁종류의	-10.9684
▁포수	-10.9685
구치	-10.9686
▁출연했다	-10.9688
▁목을	-10.9691
▁토너먼트	-10.9693
▁ship	-10.9693
お	-10.9696
ok	-10.9697
▁익	-10.9702
코의	-10.9704
현이	-10.9705
다이	-10.9705
트로	-10.9706
▁폼	-10.9707
▁공룡	-10.9708
▁별도의	-10.9709
▁saw	-10.971
▁작업을	-10.9712
▁51	-10.9712
▁있었다는	-10.9716
▁델	-10.9717
▁Track	-10.9717
▁참석	-10.9718
▁market	-10.9718
▁피할	-10.9719
州	-10.972
▁Empire	-10.972
▁언급이	-10.9721
지의	-10.9722
▁CPU	-10.9722
▁용어	-10.9724
▁+1	-10.9725
▁female	-10.9727
▁얻게	-10.973
▁강철	-10.973
▁입장에서	-10.973
sch	-10.9731
и	-10.9734
▁증오	-10.9734
▁인물이다	-10.9735
-8	-10.9737
▁Joseph	-10.9737
od	-10.9737
▁shot	-10.9737
닥	-10.9738
▁대부분은	-10.9738
▁Book	-10.9739
▁상관없이	-10.9743
▁지능	-10.9743
▁Italy	-10.9744
cy	-10.9745
▁새끼	-10.9746
her	-10.9748
▁않는다고	-10.9748
▁1936	-10.975
▁포위	-10.9751
▁벨기에	-10.9754
▁요구하는	-10.9754
컨	-10.9755
▁범위가	-10.9756
항공	-10.9756
▁정도이다	-10.9757
▁1~2	-10.9758
De	-10.976
▁개신교	-10.9761
▁주장하는	-10.9762
(\	-10.9764
▁Show	-10.9764
▁게스트	-10.9766
▁changed	-10.9766
삭	-10.9769
▁reported	-10.977
▁시작되었다	-10.9772
▁침	-10.9775
▁success	-10.9775
▁손상	-10.9778
▁맡아	-10.9779
▁승인	-10.978
값	-10.9781
▁Cross	-10.9783
back	-10.9784
house	-10.9784
구조	-10.9786
직을	-10.9789
▁goal	-10.9789
▁엘리트	-10.9789
거리는	-10.9789
▁아니라면	-10.9791
▁안나	-10.9791
▁배터리	-10.9793
이드	-10.9794
▁SKT	-10.9797
▁연혁	-10.9798
률이	-10.98
▁시내버스	-10.9801
▁일으켜	-10.9801
▁park	-10.9802
▁평양	-10.9803
▁인상	-10.9804
▁거다	-10.9804
▁노선이	-10.9805
-18	-10.9808
석이	-10.9809
▁250	-10.981
▁사랑하는	-10.981
▁컵	-10.9812
南	-10.9813
▁유희왕	-10.9813
▁manager	-10.9814
▁친구가	-10.9815
▁스키	-10.9816
EC	-10.9818
▁더빙	-10.9819
▁공격한다	-10.982
▁생기는	-10.9822
했다가	-10.9824
▁sea	-10.9824
St	-10.9825
▁시절부터	-10.9826
문제	-10.983
▁거주	-10.983
▁진압	-10.9831
▁가져가	-10.9834
▁유전자	-10.9834
▁WWE	-10.9834
스포츠	-10.9834
▁맛이	-10.9836
▁성공한	-10.9836
▁지나지	-10.9838
▁수송	-10.9838
ren	-10.9841
권의	-10.9843
▁앙	-10.9843
부는	-10.9843
ving	-10.9845
▁상처	-10.9845
▁계단	-10.9845
▁적군	-10.9846
▁것인데	-10.9847
▁멤버들	-10.9847
▁속도를	-10.9847
▁시작된	-10.9847
▁빼고	-10.9847
원은	-10.9849
▁다를	-10.9849
▁반사	-10.985
▁라이프	-10.9851
▁too	-10.9852
▁알아서	-10.9852
▁Notes	-10.9853
▁politician	-10.9853
ase	-10.9854
▁오랜만에	-10.9858
▁철거	-10.9859
달러	-10.986
▁알려	-10.9862
▁화재	-10.9863
CV	-10.9863
▁마술	-10.9863
▁정식으로	-10.9863
▁유독	-10.9867
▁공격으로	-10.9869
▁대중	-10.9869
▁몬	-10.987
▁따온	-10.9871
▁빨간	-10.9871
▁인구는	-10.9872
▁Sal	-10.9872
ane	-10.9873
▁이유를	-10.9874
▁바라	-10.9875
▁Op	-10.9875
▁전장	-10.9877
▁금융	-10.9879
▁outside	-10.9879
▁base	-10.988
▁그러니까	-10.988
▁좋아한다	-10.9882
생활	-10.9882
▁앨리스	-10.9883
▁한국에서는	-10.9889
씬	-10.9891
▁네오	-10.9892
▁후반부	-10.9894
구가	-10.9895
▁리치	-10.9896
]]	-10.99
티아	-10.9901
▁뱀파이어	-10.9902
▁더불어민주당	-10.9902
▁비해서	-10.9903
▁Dan	-10.9904
▁진짜로	-10.991
▁밑	-10.9911
▁이탈리아의	-10.9914
들과는	-10.9914
CD	-10.9919
▁Port	-10.9919
▁Gar	-10.9919
ai	-10.9922
▁헝가리	-10.9922
답	-10.9922
▁합쳐	-10.9925
▁Th	-10.9925
bar	-10.9929
차를	-10.9929
▁DC	-10.993
▁골키퍼	-10.993
▁2~3	-10.9931
▁If	-10.9931
중이다	-10.9932
▁착각	-10.9933
▁central	-10.9934
▁있음	-10.9934
▁게임은	-10.9935
▁파라	-10.9935
조건	-10.9938
▁먹은	-10.994
▁CJ	-10.9943
▁관련이	-10.9944
7%	-10.9946
▁잔뜩	-10.9947
이거나	-10.9947
▁타율	-10.9948
▁강도	-10.9949
신이	-10.995
넬	-10.9951
▁스위치	-10.9951
▁(17	-10.9951
▁되었을	-10.9953
행정	-10.9954
▁학력	-10.9954
▁사양	-10.9957
▁히어로즈	-10.9958
버그	-10.9958
▁past	-10.9959
▁확실하게	-10.996
▁바닥에	-10.9962
▁사이즈	-10.9962
▁들어가면	-10.9963
▁SR	-10.9964
▁돌아와	-10.9965
▁유나이티드	-10.9965
Le	-10.9966
▁aircraft	-10.9969
▁자국	-10.9972
▁도망치	-10.9976
▁태그	-10.9976
▁높게	-10.9977
▁Virginia	-10.998
▁들여	-10.9982
▁previous	-10.9983
▁comp	-10.9984
탐	-10.9989
▁워싱턴	-10.999
▁states	-10.9993
▁장비를	-10.9993
▁쏘	-10.9994
▁합병	-10.9994
▁상대에게	-10.9996
▁보여주	-10.9998
ア	-10.9999
▁reached	-11
▁어택	-11.0002
bu	-11.0002
▁한타	-11.0005
川	-11.0009
▁CV	-11.0011
-12	-11.0012
▁선거에서	-11.0012
▁속도로	-11.0013
style	-11.0014
】	-11.0015
▁좁은	-11.0017
▁설정을	-11.0019
▁police	-11.0019
▁writers	-11.0019
철도	-11.0021
▁장면은	-11.0021
공주	-11.0026
▁시대에	-11.0026
못	-11.0026
▁질문에	-11.0027
▁삶을	-11.0027
▁보냈다	-11.0028
ette	-11.0028
わ	-11.0029
▁밑에	-11.0031
▁느낌을	-11.0032
군과	-11.0033
▁아미	-11.0034
▁업데이트로	-11.0036
▁need	-11.0037
▁데다	-11.0039
ella	-11.004
▁덴마크	-11.0041
▁일찍	-11.0045
▁비교하면	-11.0046
▁블러드	-11.0046
▁Route	-11.0046
▁존재가	-11.0047
UN	-11.0053
▁취득	-11.0053
▁공산당	-11.0055
▁머리에	-11.0055
▁감지	-11.0056
하진	-11.0056
SBS	-11.0056
조직	-11.0057
▁action	-11.0058
ä	-11.0058
▁의존	-11.006
▁아저씨	-11.0061
▁등장하며	-11.0061
▁했었다	-11.0063
▁생각해보면	-11.0065
ser	-11.0066
▁민주	-11.0066
▁적지	-11.0067
▁울트라	-11.0068
▁awarded	-11.0068
zi	-11.0069
▁Pennsylvania	-11.0069
カ	-11.0072
▁소라	-11.0072
No	-11.0073
▁외전	-11.0073
▁도적	-11.0076
▁묘사가	-11.0076
▁각자	-11.0078
단을	-11.0079
디스	-11.0081
▁간주	-11.0081
평가	-11.0082
음이	-11.0084
600	-11.0085
마저도	-11.0086
▁나타나는	-11.0088
패를	-11.009
AM	-11.009
방어	-11.009
▁소유자	-11.0091
▁별명	-11.0093
▁후속	-11.0093
▁countries	-11.0095
▁주변의	-11.0095
정이	-11.0096
▁시절에는	-11.0097
▁최근에는	-11.0097
▁primary	-11.0099
▁아스	-11.01
▁일로	-11.0103
▁Sha	-11.0103
효과	-11.0104
▁듣는	-11.0104
▁방식을	-11.0104
▁Women	-11.0105
▁동작	-11.0105
▁provided	-11.0107
▁엔터테인먼트	-11.0108
회초	-11.0108
▁here	-11.0109
▁ever	-11.0111
▁편지	-11.0111
3%	-11.0112
당시	-11.0113
▁클랜	-11.0113
▁점도	-11.0115
분의	-11.0117
▁플레이어를	-11.0117
▁르	-11.0118
▁물고기	-11.0119
부로	-11.0125
des	-11.0126
▁아동	-11.0126
▁예고	-11.0126
▁손자	-11.0128
▁연맹	-11.0129
▁다룬	-11.0129
▁구경	-11.0131
▁artists	-11.0135
▁이용할	-11.0135
▁레이더	-11.0142
▁칼날	-11.0142
tz	-11.0142
전자	-11.0143
idae	-11.0144
월까지	-11.0145
ski	-11.0145
▁sports	-11.0147
▁토니	-11.0147
town	-11.0154
▁해골	-11.0154
공간	-11.0158
▁반전	-11.0158
▁그러던	-11.0158
FM	-11.0159
▁분열	-11.016
▁Special	-11.016
▁currently	-11.0161
tain	-11.0161
▁해준다	-11.0165
카가	-11.0166
▁위대한	-11.0167
king	-11.0168
▁Bre	-11.017
물이	-11.017
금을	-11.017
▁staff	-11.0171
▁초월	-11.0172
▁승점	-11.0173
번은	-11.0175
▁망치	-11.0176
차가	-11.0177
▁사토	-11.0178
▁또다른	-11.0178
▁turn	-11.0179
▁parts	-11.0181
▁요소가	-11.0181
▁몰아	-11.0182
▁find	-11.0184
▁1937	-11.0184
▁베어	-11.0185
인은	-11.0186
▁가량	-11.0187
트는	-11.0188
ER	-11.0188
▁식당	-11.0191
맞	-11.0191
▁대치	-11.0191
▁다리를	-11.0194
▁생각한다	-11.0194
▁블	-11.0194
▁개성	-11.0196
つ	-11.0199
▁분명히	-11.0199
fi	-11.0202
▁Its	-11.0203
위는	-11.0203
2%	-11.0205
▁상처를	-11.0206
▁저지른	-11.0207
▁간단한	-11.0207
▁구간이	-11.0208
판을	-11.0209
▁끝나	-11.0211
▁무기가	-11.0212
▁대거	-11.0212
▁멋진	-11.0213
네스	-11.0216
▁instead	-11.0217
(5	-11.0217
キ	-11.0219
▁기사단	-11.022
▁시야	-11.0221
▁남겼다	-11.0221
▁독자	-11.0222
▁가지게	-11.0222
mann	-11.0223
어도	-11.0224
▁메달리스트	-11.0225
Ma	-11.0226
▁코난	-11.0226
▁부임	-11.0227
《	-11.0227
▁컨	-11.0228
계획	-11.0231
▁경험이	-11.0231
cha	-11.0235
▁한번에	-11.0235
▁애매한	-11.0235
▁군대를	-11.0236
현의	-11.0237
▁producer	-11.0238
▁실수로	-11.0238
장치	-11.0239
▁어두운	-11.024
▁Song	-11.0241
넨	-11.0242
▁rather	-11.0242
▁스트레스	-11.0243
요시	-11.0244
▁자전거	-11.0244
넘	-11.0245
▁삼아	-11.0245
▁농업	-11.0248
▁사살	-11.025
▁health	-11.0251
이어서	-11.0251
ns	-11.0254
▁actor	-11.0256
▁적어	-11.0257
▁스틸	-11.0261
▁곡은	-11.0261
▁랜덤	-11.0261
art	-11.0262
▁응용	-11.0265
정을	-11.0266
▁sh	-11.0266
▁진학	-11.0268
▁CC	-11.0273
▁물건을	-11.0275
▁요즘	-11.0276
▁무서운	-11.0276
▁떠난	-11.0277
▁타는	-11.0277
▁커녕	-11.0279
▁무릎	-11.0281
ess	-11.0281
▁면이	-11.0281
주가	-11.0282
되게	-11.0284
▁Hu	-11.0284
시리즈	-11.0286
▁곳이다	-11.0287
▁경남	-11.0287
6%	-11.0288
▁부르	-11.0288
や	-11.0289
▁다카	-11.029
▁사이버	-11.029
▁니시	-11.0292
▁y	-11.0293
▁하나만	-11.0293
럽	-11.0293
이라고도	-11.0296
▁대지	-11.0296
▁집합	-11.0297
▁이젠	-11.0299
▁Times	-11.0299
▁Films	-11.03
▁higher	-11.0302
▁한국에	-11.0303
뎀	-11.0304
▁여담이지만	-11.0304
▁유저들의	-11.0305
브리	-11.0306
▁닌텐도	-11.0308
표를	-11.0309
훈련	-11.0309
ena	-11.0309
▁1914	-11.0311
▁유적	-11.0312
▁Mi	-11.0312
▁대단한	-11.0312
let	-11.0313
▁국가의	-11.0313
▁주위	-11.0315
▁슬롯	-11.0317
쇄	-11.0319
▁끝으로	-11.0321
▁시간대	-11.0322
바람	-11.0324
▁요한	-11.0324
주기	-11.0325
▁평을	-11.0325
▁둘의	-11.0325
▁SNS	-11.033
▁Fa	-11.033
앞	-11.033
▁특징이다	-11.0333
인치	-11.0333
▁북쪽	-11.0335
uff	-11.0336
로우	-11.0339
드리	-11.034
▁환상	-11.0341
▁결과가	-11.0342
▁드라이버	-11.0342
▁항구	-11.0343
▁수익	-11.0344
▁늘었다	-11.0346
▁진심으로	-11.0346
문학	-11.0348
▁프로토스	-11.0352
율이	-11.0355
ef	-11.0357
SE	-11.0358
▁Van	-11.036
ations	-11.036
▁사원	-11.036
▁발휘	-11.036
×	-11.0363
▁증가한다	-11.0363
▁Cor	-11.0365
보스	-11.0365
▁구할	-11.0366
based	-11.0366
月	-11.0366
시간이	-11.0368
▁진실	-11.0369
▁중세	-11.0369
▁Louis	-11.037
▁수비수	-11.0371
▁팀에	-11.0373
▁세종	-11.0375
수로	-11.0377
▁화성	-11.0378
▁제작자	-11.0379
▁little	-11.0382
▁끝난다	-11.0382
▁하루카	-11.0382
tin	-11.0384
vis	-11.0385
루수	-11.0387
여객	-11.0387
▁거지	-11.0391
▁버린	-11.0392
▁발굴	-11.0393
▁strong	-11.0394
け	-11.0395
▁강원도	-11.0395
▁data	-11.0397
▁고교	-11.0399
ade	-11.0399
▁레코드	-11.0399
▁AS	-11.0399
▁조건이	-11.04
▁부를	-11.04
▁형식으로	-11.0402
급으로	-11.0402
▁박물관	-11.0404
까지만	-11.0406
▁넘어가	-11.0406
▁fact	-11.0407
▁장전	-11.0407
▁걸리는	-11.0411
홈런	-11.0413
해지고	-11.0416
▁기숙사	-11.0417
9%	-11.0418
히코	-11.0418
▁일행이	-11.0418
▁받았고	-11.042
▁주장했다	-11.042
▁commercial	-11.0421
era	-11.0423
▁인권	-11.0423
▁진주	-11.0425
▁갖추고	-11.0426
▁건조	-11.0426
▁곡이다	-11.0427
▁상하이	-11.0429
▁규칙	-11.0431
▁호위	-11.0432
▁Bridge	-11.0432
▁직접적으로	-11.0433
▁누르면	-11.0433
▁01	-11.0434
▁엠	-11.0437
▁먹는다	-11.0438
▁엑스트라	-11.044
든지	-11.0441
▁위기를	-11.0442
▁생존자	-11.0444
▁태도를	-11.0446
▁예시	-11.045
▁units	-11.0452
ct	-11.0455
rus	-11.0459
▁더이상	-11.0459
▁가지는	-11.046
▁아래의	-11.0462
▁호칭	-11.0462
-15	-11.0462
▁Little	-11.0464
0000	-11.0464
▁Free	-11.0465
▁아서	-11.0465
▁rate	-11.0466
▁possible	-11.0466
▁상태였다	-11.0467
시는	-11.0468
▁News	-11.0468
▁Cat	-11.0469
▁summer	-11.047
CC	-11.0472
高	-11.0475
▁백인	-11.0479
▁Water	-11.0479
▁차를	-11.0481
▁brought	-11.0481
▁긴급	-11.0483
▁오늘날	-11.0483
▁southern	-11.0486
▁decided	-11.0486
▁closed	-11.0487
っ	-11.0487
▁보내는	-11.0487
▁공지	-11.0488
▁유통	-11.0488
▁무렵	-11.0493
▁스턴	-11.0495
▁인구가	-11.0496
▁데이비드	-11.0497
▁혐오	-11.0498
▁제외하고는	-11.0498
▁많지만	-11.0498
▁분쟁	-11.0499
▁칼을	-11.05
▁의견도	-11.0501
▁무기는	-11.0501
▁NBA	-11.0502
▁미키	-11.0502
▁김동	-11.0504
▁전승	-11.0505
▁개발한	-11.0507
랩	-11.0508
임이	-11.051
▁itself	-11.0511
▁방송국	-11.0513
▁et	-11.0516
▁쪽에	-11.0518
▁주인공은	-11.0518
▁하필	-11.052
▁손가락	-11.0521
▁큐	-11.0521
콤	-11.0525
▁돌아왔다	-11.0525
▁귀국	-11.0529
족의	-11.0529
▁주역	-11.0529
겸	-11.053
▁1,2	-11.053
▁대미지가	-11.053
▁커플	-11.0532
▁방지	-11.0532
▁전투가	-11.0535
▁AD	-11.0536
▁술을	-11.0538
▁이치	-11.0539
sion	-11.054
▁창단	-11.0541
▁플레이어는	-11.0542
▁Korea	-11.0542
졌고	-11.0543
▁답이	-11.0545
▁footballers	-11.0545
▁잡혀	-11.0545
▁책임을	-11.0547
▁유인	-11.0547
▁당신	-11.0547
▁보인	-11.0548
▁UN	-11.0549
▁바뀐다	-11.0551
사카	-11.0551
형으로	-11.0551
▁입대	-11.0551
▁800	-11.0552
ö	-11.0553
전투	-11.0554
▁식량	-11.0556
▁생각할	-11.0556
▁상급	-11.0556
▁나도	-11.0557
▁영화이다	-11.0557
쥐	-11.0558
▁연예인	-11.0558
▁않았다고	-11.0559
ug	-11.0559
▁거점	-11.0561
▁서울대학교	-11.0563
▁빵	-11.0566
▁선출	-11.0567
▁결	-11.0572
▁의하여	-11.0576
▁국경	-11.0576
▁주니어	-11.0578
▁배출	-11.0585
▁드라이브	-11.0585
▁개수	-11.0585
▁시간은	-11.0587
▁오스트레일리아	-11.0588
쌍	-11.0588
AD	-11.0589
▁온도	-11.0589
놀	-11.0589
▁쏴	-11.0592
▁구별	-11.0592
▁Fire	-11.0593
▁아버지는	-11.0594
▁후손	-11.0595
▁찬스	-11.0595
▁천황	-11.0595
▁어머니가	-11.0596
▁강요	-11.0598
▁김정	-11.0599
▁밝힌	-11.06
이치	-11.0601
▁완전한	-11.0603
▁얘기를	-11.0603
明	-11.0604
토리	-11.0605
▁기관총	-11.0605
▁조카	-11.0605
▁사례가	-11.0605
▁지냈다	-11.0606
▁하우스	-11.0606
형을	-11.0607
ual	-11.0612
▁지뢰	-11.0612
받고	-11.0613
▁vi	-11.0613
▁출신으로	-11.0615
▁쪽은	-11.0616
▁사냥꾼	-11.0617
▁시작했고	-11.062
▁어그로	-11.0621
▁맞이	-11.0624
▁유산	-11.0625
▁정화	-11.0626
▁보정	-11.0627
▁아들이	-11.0628
ā	-11.063
코스트	-11.063
平	-11.0631
▁귀여운	-11.0631
▁눈치	-11.0632
▁provide	-11.0633
즈가	-11.0639
뇌	-11.0641
▁클로	-11.0642
▁버튼	-11.0642
▁선거구	-11.0643
▁almost	-11.0644
▁커리어	-11.0645
▁Windows	-11.0646
▁영향	-11.0647
분이	-11.0648
▁타격을	-11.0648
▁같다고	-11.065
▁Scottish	-11.0651
▁시즌에	-11.0651
▁island	-11.0652
▁콘텐츠	-11.0654
▁교실	-11.0659
▁때에	-11.0661
▁Light	-11.0662
▁없으나	-11.0662
▁모자	-11.0663
▁배트맨	-11.0663
▁Television	-11.0666
▁Oh	-11.0667
▁스트라이크	-11.067
▁Wood	-11.067
▁확산	-11.0672
욕	-11.0674
경우	-11.0675
ola	-11.0676
▁심지어는	-11.0677
▁플	-11.0677
▁자이언츠	-11.0679
진을	-11.068
▁유리한	-11.0683
▁학습	-11.0685
▁면역	-11.0686
▁beginning	-11.0686
▁northern	-11.0686
▁말라고	-11.0687
번호	-11.0687
▁기점으로	-11.0687
▁글자	-11.0688
▁musical	-11.0689
▁Your	-11.0689
▁창설	-11.069
▁걸린다	-11.0691
▁부지	-11.0691
▁부르며	-11.0691
▁whose	-11.0691
▁음식을	-11.0692
▁신지	-11.0693
▁밤에	-11.0694
▁placed	-11.0694
▁2006,	-11.0695
▁데드	-11.0697
▁크기가	-11.0697
▁text	-11.0699
▁Tri	-11.0701
▁높	-11.0702
pi	-11.0702
▁기둥	-11.0702
▁한반도	-11.0702
▁Valley	-11.0702
▁똥	-11.0703
▁있듯이	-11.0704
▁낸다	-11.0705
▁유래	-11.0706
▁가치	-11.0707
▁테라	-11.0708
▁협상	-11.0709
▁Jewish	-11.0709
▁관심	-11.071
▁전까지는	-11.0711
▁왕국의	-11.0711
▁내각	-11.0711
관을	-11.0712
나이트	-11.0713
え	-11.0713
▁용도	-11.0714
▁넘어서	-11.0715
▁아티스트	-11.0716
▁임신	-11.0716
▁닮은	-11.0716
▁무사히	-11.0718
▁ma	-11.0719
▁끝이	-11.0719
▁축하	-11.0721
tes	-11.0721
▁관할	-11.0722
ec	-11.0723
▁뜻이	-11.0724
▁키워	-11.0724
▁코스트	-11.0725
▁하향	-11.0725
▁오버워치	-11.0726
▁시켜	-11.0727
파의	-11.073
▁95	-11.073
▁인격	-11.0731
사람	-11.0731
▁조용히	-11.0732
▁모습도	-11.0732
▁싶다면	-11.0733
▁제출	-11.0734
▁문서를	-11.0735
▁콜라보	-11.0737
▁보다는	-11.0739
히로	-11.0739
use	-11.0741
▁통화	-11.0741
구의	-11.0742
▁마키	-11.0744
▁포격	-11.0745
▁force	-11.0745
▁아이스	-11.0746
che	-11.0749
▁trade	-11.075
웰	-11.075
아의	-11.075
▁단장	-11.075
(18	-11.0751
▁카르	-11.0753
▁경비	-11.0755
▁즉사	-11.0756
fa	-11.0756
▁재능	-11.0757
▁시작하였다	-11.0758
▁아야	-11.0758
터미널	-11.0759
▁BC	-11.076
int	-11.076
부에서	-11.076
▁고도	-11.0763
す	-11.0765
▁스코틀랜드	-11.0766
lon	-11.0767
기까지	-11.0768
▁기회가	-11.0768
▁가격은	-11.0769
▁충격	-11.0771
▁JR	-11.0772
▁고속도로	-11.0773
▁부산광역시	-11.0773
▁허락	-11.0775
▁데몬	-11.0775
▁인용	-11.0775
▁사라져	-11.0777
▁중국어	-11.0778
▁폐쇄	-11.0778
▁다닌다	-11.078
▁메카	-11.078
▁냉	-11.0784
▁뜻한다	-11.0786
▁network	-11.0786
▁후배	-11.0789
▁hard	-11.0791
▁눌러	-11.0792
▁화산	-11.0793
▁Dis	-11.0793
상태	-11.0793
▁영원히	-11.0794
ip	-11.0794
▁본진	-11.0795
▁거친	-11.0796
▁Par	-11.0796
타를	-11.0796
▁stated	-11.0797
방식	-11.0798
▁behind	-11.0802
되던	-11.0804
▁든다	-11.0805
▁죠	-11.0806
▁뼈	-11.0807
▁cast	-11.0808
▁스팀	-11.0808
▁중독	-11.0809
▁edition	-11.0809
▁Band	-11.0809
▁중복	-11.0811
호로	-11.0812
▁내게	-11.0812
▁닭	-11.0813
▁모집	-11.0815
▁강남	-11.0816
▁한방	-11.0819
▁베를린	-11.0819
▁쌓아	-11.082
땅	-11.0821
▁퀄리티	-11.0821
▁winning	-11.0821
지지	-11.0822
경찰	-11.0823
ath	-11.0823
▁경우엔	-11.0824
▁연락	-11.0825
▁자랑하는	-11.0825
▁고위	-11.0826
▁king	-11.083
▁results	-11.0831
▁빼면	-11.0832
▁am	-11.0832
▁기사가	-11.0832
生	-11.0832
▁reading	-11.0834
▁브라	-11.0839
▁느끼고	-11.0841
▁슬	-11.0841
▁내려가	-11.0842
▁시인	-11.0842
▁펫	-11.0843
▁Middle	-11.0846
▁프레	-11.0846
▁bgcolor	-11.0846
▁스테	-11.0847
▁전북	-11.0851
▁도박	-11.0852
라를	-11.0853
▁횟수	-11.0855
▁주류	-11.0856
▁추정되는	-11.0857
▁그라	-11.0857
네가	-11.0857
ram	-11.0857
▁상태를	-11.086
▁허리	-11.086
▁형태를	-11.086
급의	-11.0861
▁너를	-11.0863
츠키	-11.0865
▁그날	-11.0865
▁그럭저럭	-11.0865
세력	-11.0866
▁자라	-11.0867
▁복잡한	-11.0868
–20	-11.0871
org	-11.0871
▁전체가	-11.0873
▁사건에	-11.0874
▁졸업식	-11.0875
▁전방	-11.0876
▁일으킨	-11.0876
유닛	-11.0876
넌	-11.0876
단이	-11.0876
▁괜히	-11.0877
▁전의	-11.0878
▁훈	-11.0878
▁내장	-11.0879
빨	-11.0881
▁successful	-11.0883
▁구름	-11.0884
▁땅에	-11.0884
▁라인전	-11.0885
부문	-11.0885
Al	-11.0886
▁막아	-11.0886
▁매번	-11.0888
▁취미	-11.0888
▁진실을	-11.0889
▁코리아	-11.089
역이	-11.089
▁additional	-11.0892
▁맺	-11.0893
▁deal	-11.0894
▁불만을	-11.0894
▁child	-11.0894
▁개량	-11.0895
▁약화	-11.0895
납	-11.0897
▁아나	-11.0899
▁취향	-11.0902
▁말라	-11.0902
▁권리	-11.0902
▁우리의	-11.0903
IT	-11.0904
▁이정	-11.0905
az	-11.0905
▁refer	-11.091
▁질병	-11.0912
▁졸	-11.0912
▁88	-11.0912
▁이로써	-11.0914
▁드림	-11.0915
無	-11.0915
▁access	-11.0916
▁1935	-11.0918
ari	-11.0922
▁카드의	-11.0922
▁플라	-11.0925
cle	-11.0925
▁남아있는	-11.0926
▁소식이	-11.0928
▁색깔	-11.0929
▁오류	-11.0929
▁기술로	-11.093
▁얘	-11.0932
▁징역	-11.0934
▁터치	-11.0936
▁웹사이트	-11.0936
▁말리	-11.0937
짜	-11.0939
▁능력으로	-11.0939
▁structure	-11.094
▁간단히	-11.0941
▁후퇴	-11.0943
대신	-11.0945
▁며칠	-11.0945
▁대선	-11.0947
▁Jersey	-11.0947
▁대리	-11.0948
▁나은	-11.0949
▁magazine	-11.095
▁발을	-11.095
▁되려	-11.0953
등이	-11.0954
▁사정	-11.0955
▁전설의	-11.0955
▁배정	-11.0955
▁팬텀	-11.0956
했기에	-11.0958
oon	-11.0958
학생	-11.096
▁서서히	-11.096
▁(4	-11.0962
층에	-11.0962
민이	-11.0962
업체	-11.0963
▁피격	-11.0965
ju	-11.0965
▁보충	-11.0966
光	-11.0968
▁thought	-11.0969
▁선호	-11.097
ological	-11.097
이후	-11.097
▁끈	-11.0971
ó	-11.0974
▁커피	-11.0975
▁유지하고	-11.0976
▁기도	-11.0978
▁친한	-11.0979
체를	-11.0979
▁끝났다	-11.098
▁방면	-11.098
▁반해	-11.0981
타입	-11.0982
▁목격	-11.0982
▁의해서	-11.0983
ear	-11.0984
▁여인	-11.0985
▁버그가	-11.0986
ound	-11.0986
海	-11.0988
되었다고	-11.099
▁CF	-11.0993
▁자신들이	-11.0995
▁몰려	-11.0995
▁NY	-11.0995
▁competition	-11.0996
▁토지	-11.0997
▁수영	-11.0997
관이	-11.0999
▁멜로디	-11.0999
▁악당	-11.0999
▁춘	-11.0999
▁서구	-11.1
▁호소	-11.1001
▁1934	-11.1001
▁세상에	-11.1002
▁작품은	-11.1002
▁압도적으로	-11.1004
ala	-11.1005
▁studio	-11.1005
▁상실	-11.1005
▁챙겨	-11.1007
▁열리는	-11.1009
▁나이에	-11.101
▁흰색	-11.1011
▁↔	-11.1012
▁육체	-11.1014
성으로	-11.1014
あ	-11.1016
▁중력	-11.1016
▁부모	-11.1016
타운	-11.1017
▁식사	-11.1018
▁들어오는	-11.1021
▁AFC	-11.1023
▁56	-11.1024
▁포항	-11.1024
▁공연을	-11.1024
노스	-11.1031
▁세계대전	-11.1032
▁밀어	-11.1033
▁End	-11.1034
▁분신	-11.1036
▁성격을	-11.1038
▁강의	-11.1038
▁organization	-11.1038
▁원칙	-11.1039
▁것보다	-11.1039
카라	-11.1039
▁시리즈에서	-11.1043
▁냈다	-11.1045
스럽게	-11.1046
▁호평을	-11.1046
▁베이징	-11.1046
▁Research	-11.1048
▁돌아가는	-11.1049
▁침입	-11.1049
▁places	-11.1049
▁USA	-11.1049
▁Prince	-11.105
▁작화	-11.1052
▁세워	-11.1053
받는다	-11.1054
ev	-11.1055
계를	-11.1055
▁동경	-11.1055
len	-11.1055
▁올릴	-11.1056
▁악화	-11.1056
법이	-11.1057
▁Ram	-11.1057
▁소송	-11.1058
▁54	-11.1058
▁systems	-11.1059
▁스토리를	-11.106
▁목소리를	-11.106
▁Director	-11.1061
분을	-11.1061
▁birth	-11.1063
▁언급된	-11.1066
▁Theatre	-11.1067
▁Spain	-11.1067
▁주제	-11.1068
▁야마	-11.1068
▁넘게	-11.1069
난다	-11.107
▁루이스	-11.1071
▁디젤	-11.1071
▁김태	-11.1071
▁previously	-11.1072
▁노리고	-11.1072
▁소스	-11.1073
▁plan	-11.1074
▁cover	-11.1074
으로만	-11.1074
▁runs	-11.1076
▁표면	-11.1076
▁된다면	-11.1076
▁버튼을	-11.1078
▁후방	-11.1081
▁버전이	-11.1082
▁터미널	-11.1083
▁오기	-11.1084
▁편이지만	-11.1084
▁꿀	-11.1084
▁위원장	-11.1085
▁떡밥	-11.1085
▁공격력을	-11.1091
▁economic	-11.1092
▁듣는다	-11.1093
▁특별히	-11.1094
▁프리미엄	-11.1095
로서는	-11.1096
▁모모	-11.1097
▁capital	-11.1097
▁역사를	-11.1097
▁게이지	-11.11
▁넣을	-11.11
▁참여한	-11.11
캐릭터	-11.1101
▁해명	-11.1101
▁합니다	-11.1101
▁끝날	-11.1101
▁Congress	-11.1101
였다는	-11.1102
행위	-11.1104
▁Board	-11.1105
ping	-11.1105
정도로	-11.1106
▁복무	-11.1106
▁제자	-11.1107
▁나눠	-11.1107
lam	-11.1108
(6	-11.1109
▁allowed	-11.1111
형이	-11.1111
▁지은	-11.1111
▁달라	-11.1114
-17	-11.1114
▁김용	-11.1115
▁fourth	-11.1115
▁오스만	-11.1115
공화국	-11.1116
▁억지로	-11.1117
▁기여	-11.1117
도르	-11.1117
▁지키는	-11.1117
▁향한	-11.1118
▁래	-11.1118
되었기	-11.1121
▁66	-11.1122
▁goals	-11.1124
것이다	-11.1128
▁플래시	-11.1129
여자	-11.1129
강에서	-11.113
성에	-11.113
▁막내	-11.113
당할	-11.1131
▁singles	-11.1134
▁대학원	-11.1136
▁지키기	-11.1138
▁Bu	-11.1139
▁쏘는	-11.1139
lic	-11.114
▁SC	-11.1145
om	-11.1147
▁플레이가	-11.1148
事	-11.1148
▁출시되었다	-11.1149
.02	-11.115
▁시청률	-11.1151
▁Following	-11.1153
地	-11.1153
▁썩	-11.1153
▁묵	-11.1153
war	-11.1155
▁서비스를	-11.116
▁leader	-11.116
▁미나	-11.1163
위가	-11.1165
▁가진다	-11.1165
▁빚	-11.1166
▁전작의	-11.1171
里	-11.1171
▁충청남도	-11.1171
▁파란색	-11.1172
▁스토리가	-11.1173
▁입구	-11.1175
text	-11.1175
▁김진	-11.1176
iv	-11.1177
▁Carolina	-11.1178
▁태풍	-11.1179
영웅	-11.1179
▁일어났다	-11.1181
▁이쪽	-11.1184
▁구도	-11.1184
▁artist	-11.1186
▁약점	-11.1186
▁노리는	-11.1187
▁double	-11.1188
▁디버프	-11.119
▁성별	-11.119
▁인간을	-11.1193
컴	-11.1193
▁복원	-11.1196
▁Sub	-11.1196
▁조상	-11.1196
▁각각의	-11.1196
unt	-11.1197
▁남기고	-11.1198
유키	-11.1198
▁추억	-11.12
억원	-11.12
▁주장을	-11.1201
▁means	-11.1202
▁multi	-11.1202
▁웬만한	-11.1204
ada	-11.1207
▁수립	-11.1208
▁그렇고	-11.1209
▁Sh	-11.1211
▁operations	-11.1215
▁혼란	-11.1216
▁분포	-11.1217
▁땅을	-11.1218
▁give	-11.122
▁Post	-11.1221
▁형상	-11.1221
월드	-11.1222
gu	-11.1223
▁계획이	-11.1224
▁이수	-11.1224
▁학과	-11.1224
▁카드는	-11.1225
▁아래로	-11.1226
▁신뢰	-11.1228
▁선고	-11.1229
▁부정적인	-11.1229
▁Navy	-11.1231
▁자금	-11.1232
▁칼리	-11.1232
▁알바	-11.1233
▁gold	-11.1236
도서관	-11.1236
▁Civil	-11.1237
▁DNA	-11.1237
▁Mel	-11.1239
ble	-11.124
▁사태가	-11.1241
▁future	-11.1242
pl	-11.1242
▁score	-11.1246
힘	-11.1248
EN	-11.1249
my	-11.125
종의	-11.1251
▁크리스탈	-11.1252
▁프로필	-11.1253
럭	-11.1254
▁더군다나	-11.1256
▁핀란드	-11.1256
ious	-11.1258
▁Ab	-11.126
중국	-11.126
▁철학	-11.126
▁owned	-11.126
▁어렸을	-11.1263
▁남녀	-11.1264
미를	-11.1265
▁완결	-11.1265
냐며	-11.1266
▁size	-11.1271
▁공격은	-11.1273
▁보이는데	-11.1274
ae	-11.1275
▁처음엔	-11.1275
▁move	-11.1275
▁구축함	-11.1276
▁Later	-11.1278
▁Heart	-11.1278
빅	-11.1279
▁기세	-11.128
▁없으므로	-11.1282
▁Dream	-11.1284
ys	-11.1284
▁1933	-11.1286
▁마라	-11.1289
▁진격	-11.129
:#	-11.1291
▁써야	-11.1292
▁되었지만	-11.1293
누스	-11.1294
▁무력화	-11.1294
▁저작권	-11.1294
▁r	-11.1295
▁키가	-11.1296
▁보완	-11.1299
하겠다는	-11.13
▁작전을	-11.13
▁거울	-11.1301
▁Season	-11.1304
▁defeated	-11.1305
▁나누어	-11.1305
▁죽었다	-11.1307
▁시리아	-11.1307
▁윈	-11.1307
▁가만히	-11.1308
▁Gen	-11.1309
▁영문	-11.131
▁food	-11.131
▁Dutch	-11.1313
▁반박	-11.1315
▁촌	-11.1315
▁living	-11.1317
▁모양의	-11.1317
▁산하	-11.1318
▁Queen	-11.1319
▁tour	-11.132
▁face	-11.132
▁미만	-11.132
▁일본군	-11.1321
▁마사	-11.1322
▁sometimes	-11.1322
어가	-11.1322
▁약물	-11.1323
ks	-11.1323
▁실점	-11.1324
▁세력이	-11.1324
▁이벤트가	-11.1327
역사	-11.1328
set	-11.133
▁98	-11.1332
▁사용되었다	-11.1332
▁Play	-11.1333
헬	-11.1333
▁복제	-11.1334
작전	-11.1334
▁1932	-11.1336
▁게시판	-11.1336
판이	-11.1337
▁통하여	-11.1337
▁본토	-11.1338
▁초반부터	-11.1339
▁내전	-11.134
순위	-11.134
▁침략	-11.134
▁카와	-11.1344
MP	-11.1345
▁몹	-11.1346
▁에르	-11.1346
▁스킬은	-11.1346
▁이벤트를	-11.1347
▁트위치	-11.135
마이	-11.1351
▁얻는다	-11.1352
▁조명	-11.1352
ore	-11.1353
▁쭉	-11.1353
▁해상	-11.136
▁임금	-11.136
▁청소	-11.136
▁오크	-11.1361
▁Bur	-11.1361
▁label	-11.1363
▁Southern	-11.1363
▁벌레	-11.1365
▁야생	-11.1365
▁여자친구	-11.1366
▁정체	-11.1371
인들은	-11.1371
▁청주	-11.1372
▁사고를	-11.1372
병을	-11.1376
▁죽음	-11.1376
▁재단	-11.1377
ロ	-11.1378
▁entire	-11.1378
▁시리즈에	-11.138
▁아키라	-11.1382
▁여지가	-11.1382
行	-11.1383
年	-11.1384
▁1918	-11.1385
▁이득을	-11.1385
AS	-11.1385
▁흉	-11.1385
▁마법소녀	-11.1385
▁Mu	-11.1387
▁plant	-11.1387
ons	-11.1388
▁트리플	-11.1388
▁마츠	-11.139
▁heart	-11.139
▁결정적인	-11.1391
▁그녀에게	-11.1393
켈	-11.1394
파이	-11.1395
▁좋	-11.1396
▁커서	-11.1396
▁아우	-11.1397
트와	-11.1398
▁킨	-11.1398
인데다	-11.1399
▁운명	-11.14
▁국가대표	-11.14
▁예비	-11.1403
▁Inter	-11.1405
▁액	-11.1406
▁movement	-11.1406
▁치명적인	-11.1407
▁원조	-11.1409
▁차이는	-11.1411
▁1,000	-11.1413
▁전날	-11.1413
▁잠입	-11.1414
▁사유	-11.1414
고속	-11.1415
▁2.0	-11.1416
▁bass	-11.1417
ye	-11.1418
▁압도	-11.1418
전의	-11.1418
▁상대는	-11.1419
념	-11.1419
▁캠프	-11.1421
▁수백	-11.1422
▁설정상	-11.1423
tur	-11.1423
▁도달	-11.1427
▁출범	-11.1427
▁체감	-11.1428
▁시위	-11.1429
▁유저들	-11.143
▁Cal	-11.143
▁영구	-11.143
▁선택할	-11.1431
▁떡	-11.1431
▁아케이드	-11.1431
ery	-11.1432
▁제한이	-11.1434
▁미나미	-11.1435
▁스킬로	-11.1436
루가	-11.1436
▁클	-11.1437
▁주택	-11.1437
br	-11.1439
지대	-11.1441
▁Scotland	-11.1441
▁Er	-11.1441
▁interest	-11.1442
▁soon	-11.1443
스테이지	-11.1443
▁화장실	-11.1443
▁둘을	-11.1444
▁달아	-11.1444
▁centre	-11.1446
쳤다	-11.1447
▁장거리	-11.1448
▁해당한다	-11.1448
▁1929	-11.1451
병기	-11.1451
▁Columbia	-11.1451
▁전세계	-11.1452
▁방치	-11.1452
▁일행을	-11.1453
주로	-11.1453
▁양자	-11.1455
▁번째로	-11.1456
▁무술	-11.1458
▁두려워	-11.1459
▁보면서	-11.1459
ised	-11.1461
세에	-11.1465
DS	-11.1466
▁일부를	-11.1466
▁des	-11.1466
▁legal	-11.1467
本	-11.1467
▁공정	-11.1467
▁나오기도	-11.1469
▁포기하고	-11.147
▁독일군	-11.147
▁선수들	-11.1471
▁self	-11.1472
氏	-11.1473
▁101	-11.1475
▁바꿀	-11.1475
▁헤비	-11.1478
ans	-11.1479
▁사용된	-11.1479
르는	-11.1479
▁word	-11.148
▁덴	-11.1483
▁돌입	-11.1485
▁Ban	-11.1486
▁때문이라고	-11.1486
▁Video	-11.1487
▁무척	-11.1487
▁불편	-11.149
패로	-11.1491
▁김현	-11.1492
▁차이를	-11.1494
는걸	-11.1494
正	-11.1494
tri	-11.1497
▁표정	-11.1498
cal	-11.1499
▁큐브	-11.1499
▁달라고	-11.15
▁성경	-11.15
ight	-11.1501
▁Si	-11.1503
▁제작사	-11.1503
▁세계에	-11.1504
MS	-11.1505
▁cut	-11.1505
되므로	-11.1506
▁돌아	-11.1507
뉴스	-11.1507
▁깎	-11.1508
color	-11.1509
▁탁	-11.1509
▁ended	-11.1509
이면서	-11.151
▁상인	-11.1511
▁Edward	-11.1513
와서	-11.1514
▁카드로	-11.1515
▁Jones	-11.1515
▁according	-11.1516
▁complex	-11.1518
왕이	-11.1519
▁해킹	-11.1519
▁공격수	-11.152
▁방어구	-11.152
▁met	-11.1521
nt	-11.1521
▁타락	-11.1522
▁로고	-11.1525
▁브라운	-11.1526
▁이하의	-11.1526
▁특수한	-11.1526
▁신앙	-11.1527
▁정찰	-11.1527
▁사형	-11.1527
illa	-11.1528
▁주둔	-11.1529
▁노선을	-11.1531
oid	-11.1531
으론	-11.1531
▁세력을	-11.1531
▁조심	-11.1531
▁벗	-11.1532
▁챌린지	-11.1532
▁되어버렸다	-11.1532
▁degree	-11.1535
▁Bra	-11.1536
▁출	-11.1539
▁준비를	-11.154
▁뒤늦게	-11.154
권에	-11.154
▁85	-11.1541
元	-11.1542
▁교토	-11.1544
대대	-11.1546
성우	-11.1547
▁리얼	-11.1547
▁안정	-11.1547
▁traditional	-11.1548
▁하단	-11.1549
▁division	-11.1551
마가	-11.1551
▁올라가는	-11.1551
▁Ti	-11.1552
▁command	-11.1552
▁유튜버	-11.1553
▁장남	-11.1553
냐는	-11.1555
▁Chief	-11.1555
▁별명이	-11.1555
▁흐	-11.1556
istic	-11.1557
▁예외	-11.1558
▁날리는	-11.1559
제도	-11.156
▁몰라	-11.156
환경	-11.1561
▁그러면	-11.1562
▁싶다고	-11.1562
▁스티븐	-11.1564
▁1928	-11.1565
▁성향이	-11.1565
▁individual	-11.1566
▁놓	-11.1566
▁윗	-11.1567
▁건물을	-11.1571
들보다	-11.1571
▁96	-11.1571
▁악의	-11.1573
▁Many	-11.1574
▁생명체	-11.1575
▁도움으로	-11.1575
-16	-11.1575
▁independent	-11.1575
▁location	-11.1576
▁call	-11.1576
ken	-11.1576
mit	-11.1577
해져	-11.1578
▁나왔던	-11.1578
▁mo	-11.1578
▁위원회	-11.1578
▁제공하는	-11.1579
▁특히나	-11.1581
▁외계인	-11.1582
▁격추	-11.1582
▁active	-11.1587
▁법칙	-11.1588
▁배를	-11.1589
▁나오면서	-11.1589
▁끊	-11.159
상이	-11.159
▁연기를	-11.1593
▁hockey	-11.1593
▁끝나는	-11.1594
▁especially	-11.1594
노트	-11.1595
▁올해의	-11.1595
▁좋다고	-11.1596
▁이라크	-11.1596
▁Inc	-11.1598
▁industry	-11.1598
사격	-11.1598
▁분해	-11.16
▁collection	-11.16
ert	-11.1603
▁해주	-11.1604
▁버리는	-11.1604
▁넥센	-11.1606
▁학교에서	-11.1606
▁리듬	-11.1607
라와	-11.1608
▁청와대	-11.1609
▁알려졌다	-11.1609
▁과거에는	-11.1609
▁맥스	-11.1611
자들은	-11.1612
시키면	-11.1612
▁록맨	-11.1614
▁업적	-11.1615
▁better	-11.1615
▁베타	-11.1617
싸움	-11.1617
줘야	-11.1617
▁영화를	-11.1618
su	-11.1619
▁아이가	-11.1619
할수	-11.162
▁Jr	-11.1621
▁목사	-11.1622
if	-11.1624
▁패널	-11.1624
술사	-11.1624
Me	-11.1624
▁속의	-11.1625
▁유미	-11.1625
▁오라	-11.1627
▁영어로	-11.1627
▁Health	-11.1627
▁집권	-11.1628
만으로도	-11.163
▁display	-11.1631
▁소속의	-11.1631
▁length	-11.1632
▁[[	-11.1635
▁주식	-11.1637
▁퇴장	-11.1637
▁test	-11.1637
▁고소	-11.1638
▁Far	-11.1639
▁마루	-11.1639
▁동양	-11.1641
▁72	-11.1641
sha	-11.1641
▁writing	-11.1642
▁나라의	-11.1642
▁있겠지만	-11.1643
▁서머	-11.1643
▁voice	-11.1645
▁레인	-11.1645
▁세팅	-11.1646
▁회색	-11.1646
배우	-11.1647
▁의뢰	-11.1648
▁Wi	-11.1648
▁웨이	-11.165
▁검은색	-11.1651
▁야마토	-11.1652
▁담긴	-11.1653
▁에리	-11.1654
정의	-11.1654
동이	-11.1657
▁연타	-11.1657
▁사마	-11.1658
▁예전에	-11.1659
▁자꾸	-11.1659
▁일본에	-11.1659
▁regular	-11.1661
-9	-11.1662
▁money	-11.1662
▁훈련을	-11.1662
▁우주선	-11.1663
▁프로그램을	-11.1664
▁신전	-11.1665
公	-11.1668
▁입지	-11.1669
して	-11.1674
였	-11.1675
▁만일	-11.1677
▁체육	-11.1678
▁야스	-11.1678
▁막는	-11.1678
▁포트	-11.1679
PS	-11.1679
▁침묵	-11.1679
▁사단	-11.1681
ill	-11.1683
판은	-11.1684
▁학교에	-11.1686
주의자	-11.1686
eb	-11.1686
▁Project	-11.1687
즐	-11.1689
▁시드	-11.169
▁돼서	-11.1691
▁선조	-11.1691
rie	-11.1692
▁고개	-11.1693
▁원형	-11.1694
▁키보드	-11.1695
기구	-11.1695
전사	-11.1696
▁상태에	-11.1696
▁딜링	-11.1696
▁57	-11.1697
▁Fort	-11.1698
▁나타내는	-11.1698
▁mm	-11.1699
개씩	-11.1699
퀴	-11.17
▁죽게	-11.1701
▁파동	-11.1702
▁3000	-11.1703
▁직접적인	-11.1703
ible	-11.1705
▁놓은	-11.1707
▁에릭	-11.1708
▁자유롭게	-11.1709
TA	-11.171
▁going	-11.171
▁마우스	-11.1711
▁동인	-11.1712
번으로	-11.1715
長	-11.1716
▁셰	-11.1719
▁sound	-11.1719
인데도	-11.172
▁도끼	-11.1721
▁당신이	-11.1722
▁피가	-11.1724
▁파크	-11.1726
연속	-11.1726
▁싸워	-11.1729
▁밝은	-11.1729
▁가능성은	-11.1729
▁여기는	-11.1729
▁실망	-11.173
▁인도네시아	-11.1733
▁팔을	-11.1735
▁도망가	-11.1735
▁다이아몬드	-11.1736
▁1931	-11.1736
▁그림을	-11.1736
▁나갈	-11.1736
▁경우에도	-11.1737
▁thus	-11.1738
▁중화인민공화국	-11.174
▁법원	-11.1744
▁실전	-11.1746
▁불펜	-11.1749
▁원딜	-11.1752
▁일에	-11.1752
▁변화가	-11.1752
ender	-11.1754
베리	-11.1754
▁헬기	-11.1755
▁수요	-11.1758
링크	-11.176
▁첼시	-11.176
구간	-11.1762
▁opening	-11.1764
ero	-11.1764
▁파는	-11.1765
▁디스크	-11.1766
▁처럼	-11.1766
▁#1	-11.1769
top	-11.1769
▁받아서	-11.1771
▁Asia	-11.1771
연구소	-11.1772
▁떨어졌다	-11.1772
▁판결	-11.1772
▁왠지	-11.1775
있고	-11.1775
▁입주	-11.1777
700	-11.1777
▁Scott	-11.1778
▁폭행	-11.1778
▁1910	-11.1779
▁왈	-11.1779
ification	-11.1781
▁기가	-11.1784
▁리그에서	-11.1785
겠지	-11.1789
▁용의	-11.1792
▁터널	-11.1793
▁자녀	-11.1793
▁감동	-11.1793
▁모티브로	-11.1795
▁이듬해	-11.1795
▁인력	-11.1795
코스	-11.1798
▁내렸다	-11.1801
▁선수권	-11.1802
▁치면	-11.1808
▁받아들여	-11.1809
▁한마디로	-11.181
▁가질	-11.1813
▁실패했다	-11.1814
께	-11.1814
▁o	-11.1815
▁슈트	-11.1815
▁Ohio	-11.1815
▁나타났다	-11.1816
▁전화를	-11.1817
▁표지	-11.182
▁whom	-11.182
▁힘들어	-11.1821
め	-11.1828
상으로는	-11.183
▁수능	-11.183
▁towards	-11.1832
▁사용하며	-11.1833
▁양식	-11.1835
▁나머지는	-11.1836
▁1924	-11.1837
▁버전은	-11.1837
♪	-11.1837
▁our	-11.1838
▁Earth	-11.184
▁미드필더	-11.184
▁좋아서	-11.1841
었	-11.1841
▁아버지를	-11.1844
▁le	-11.1844
마스터	-11.1846
▁들어가서	-11.1847
▁열쇠	-11.1847
▁53	-11.1847
▁Journal	-11.1848
▁앉아	-11.1849
▁신이	-11.1851
▁victory	-11.1852
▁오로지	-11.1854
▁인공	-11.1854
▁Col	-11.1854
▁Committee	-11.1855
지와	-11.1855
▁로스	-11.1855
▁seat	-11.1856
살이	-11.1856
▁significant	-11.1857
▁지목	-11.1858
▁어렵지	-11.1858
IA	-11.1859
▁도저히	-11.186
강에	-11.186
▁마블	-11.186
▁Career	-11.1862
▁장미	-11.1865
▁natural	-11.1865
▁누군가	-11.1866
▁Military	-11.1867
▁싶지	-11.1868
▁부스터	-11.187
▁사정거리	-11.187
▁standard	-11.1871
▁따위	-11.1873
▁작품이다	-11.1874
▁그랜드	-11.1875
▁하였고	-11.1879
▁기록은	-11.1881
▁맡게	-11.1882
An	-11.1883
▁코우	-11.1884
▁건국	-11.1885
▁Min	-11.1886
▁축소	-11.1887
▁후계자	-11.189
▁밝혀	-11.189
▁깜짝	-11.1892
EX	-11.1893
그라	-11.1893
▁bridge	-11.1895
번과	-11.1895
▁루비	-11.1895
건설	-11.1898
▁Russia	-11.1898
▁required	-11.1899
만화	-11.1899
▁나간	-11.19
/2	-11.1902
왜	-11.1903
켓	-11.1903
▁일당	-11.1904
▁소지	-11.1904
▁RPG	-11.1906
▁편에	-11.1907
▁막고	-11.1907
▁보이스	-11.1908
▁수류탄	-11.1909
ky	-11.1909
▁매주	-11.1909
宗	-11.191
▁상의	-11.1911
▁넷	-11.1913
▁1927	-11.1913
▁속한	-11.1916
▁attended	-11.1916
▁상태이다	-11.1917
och	-11.1919
현재	-11.1919
사거리	-11.1919
▁교류	-11.192
▁바르셀로나	-11.192
▁진행하는	-11.192
▁이루어졌다	-11.1921
▁imp	-11.1921
드로	-11.1921
▁가려	-11.1922
▁설치되어	-11.1922
▁complete	-11.1924
▁uses	-11.1924
▁사무	-11.1924
▁미야	-11.1925
▁법정	-11.1925
콩	-11.1926
マ	-11.193
▁유치	-11.193
교사	-11.1932
▁플라이	-11.1932
コ	-11.1933
▁야수	-11.1935
▁편지를	-11.1936
계에서	-11.1938
RE	-11.1939
▁너는	-11.1939
▁총선	-11.1939
▁spent	-11.1941
▁Like	-11.1943
노선	-11.1943
=#	-11.1944
▁수호자	-11.1946
▁주인공을	-11.1947
▁파울	-11.1947
▁그래서인지	-11.1949
▁체크	-11.1953
▁곡의	-11.1953
▁상위권	-11.1953
▁Will	-11.1953
▁길게	-11.1954
▁족	-11.1955
▁1900	-11.1956
▁IS	-11.1958
ates	-11.196
▁느끼는	-11.1961
인조	-11.1964
▁악몽	-11.1964
▁되어있다	-11.1965
▁거두었다	-11.1965
대표	-11.1965
▁공통	-11.1965
▁과제	-11.1966
▁팀원	-11.1967
▁양상	-11.1967
▁성씨	-11.1968
▁회차	-11.197
家	-11.197
▁볼트	-11.1973
보자	-11.1974
▁모습에	-11.1976
▁인원	-11.1978
▁파편	-11.1978
▁listed	-11.1979
▁맞는다	-11.198
▁가리지	-11.198
000	-11.1981
▁마주	-11.1981
▁극복	-11.1982
▁보유한	-11.1983
▁가능성을	-11.1984
▁이민	-11.1984
▁상륙	-11.1985
▁시작된다	-11.1986
▁아닌데	-11.1986
▁못하면	-11.1988
키를	-11.1988
인듯	-11.1988
▁김종	-11.1988
▁seasons	-11.1989
▁드러나	-11.1989
▁차체	-11.1989
▁톱	-11.199
▁추구	-11.199
▁바꾼	-11.199
▁감독을	-11.1992
van	-11.1992
▁도움	-11.1992
▁taking	-11.1993
▁듀오	-11.1995
국이	-11.1995
▁계기가	-11.1996
▁아이템이	-11.1997
▁Apple	-11.1997
ano	-11.1998
돌이	-11.1998
▁먹어	-11.1998
▁장인	-11.1999
▁독점	-11.1999
▁조언	-11.2
▁na	-11.2
제의	-11.2002
▁승진	-11.2002
▁떠났다	-11.2005
ings	-11.2006
▁파츠	-11.2007
▁조우	-11.2007
▁어필	-11.2008
대사	-11.201
▁극히	-11.201
쟈	-11.2014
▁인지	-11.2015
▁소속으로	-11.2017
▁노벨	-11.2019
테이	-11.2019
▁System	-11.2019
▁안타를	-11.202
려서	-11.202
▁배역	-11.2022
▁클라	-11.2024
▁세뇌	-11.2024
▁주인공인	-11.2025
▁경로	-11.2028
▁running	-11.2029
▁데이터를	-11.2029
우주	-11.203
▁기구	-11.2031
▁민간인	-11.2031
면서도	-11.2032
▁출구	-11.2033
▁힙합	-11.2033
▁미래를	-11.2036
▁부담	-11.2036
진은	-11.2037
▁낚시	-11.2037
▁세웠다	-11.2038
레인저	-11.2038
▁반지	-11.2039
▁당한다	-11.2041
▁수면	-11.2043
▁심리	-11.2048
▁먹이	-11.2048
카의	-11.205
▁집행	-11.2052
▁곡으로	-11.2054
▁실현	-11.2055
▁윙	-11.2055
▁간에	-11.2055
마냥	-11.2056
▁중첩	-11.2056
듯한	-11.2056
▁재미	-11.2056
▁잡아먹	-11.2058
▁star	-11.2059
▁cross	-11.2059
▁유니폼	-11.2061
▁multiple	-11.2063
▁릴리	-11.2063
▁동아리	-11.2064
친다	-11.2067
小	-11.2067
▁care	-11.207
▁루시	-11.2071
수와	-11.2073
부장	-11.2074
사항	-11.2075
▁싶	-11.2076
▁Ke	-11.2077
진의	-11.2077
타카	-11.2077
▁위력을	-11.2077
▁값	-11.2078
▁빠르다	-11.2078
하였지만	-11.2079
▁캔슬	-11.2079
▁여론	-11.208
▁What	-11.2081
▁keep	-11.2082
▁footballer	-11.2083
▁names	-11.2084
▁1922	-11.2086
▁차기	-11.2089
군으로	-11.2089
ō	-11.2089
가능	-11.2089
▁마냥	-11.2091
▁사서	-11.2092
선은	-11.2092
▁contains	-11.2092
▁성을	-11.2093
▁수치가	-11.2094
▁More	-11.2095
신을	-11.2095
▁캐시	-11.2096
▁집착	-11.2097
▁student	-11.2097
▁타겟	-11.2098
▁이곳에	-11.21
▁시리즈를	-11.21
▁담당하는	-11.2101
▁사무실	-11.2102
▁모티브는	-11.2103
▁ran	-11.2104
▁Highway	-11.2107
▁촉	-11.2109
건지	-11.2109
▁호랑이	-11.211
▁association	-11.211
BA	-11.2113
▁지연	-11.2117
社	-11.2118
▁일부는	-11.2118
▁5%	-11.2119
▁깊이	-11.2119
▁성과	-11.2119
▁사회주의	-11.2119
▁이곳에서	-11.2121
▁참가자	-11.2121
▁원작의	-11.2121
▁스폰	-11.2121
우의	-11.2123
인방	-11.2123
▁만들어서	-11.2126
코는	-11.2129
▁꼽	-11.213
▁40%	-11.213
▁대단히	-11.213
LA	-11.213
▁넘겨	-11.2131
▁활동하고	-11.2131
오가	-11.2131
▁론	-11.2131
▁다운로드	-11.2131
▁famous	-11.2132
▁옆에서	-11.2132
▁등장하는데	-11.2132
▁generally	-11.2133
▁일방적으로	-11.2134
▁blue	-11.2135
기준	-11.2137
▁차지하는	-11.2139
▁화제가	-11.2139
함대	-11.214
▁SD	-11.2141
▁개발자	-11.2142
▁딜을	-11.2143
▁단축	-11.2144
번째로	-11.2144
탱	-11.2144
▁선두	-11.2144
▁25%	-11.2146
▁사거리가	-11.2146
▁드립	-11.2146
▁미소	-11.2147
▁개별	-11.2149
▁변화를	-11.215
法	-11.2152
▁몰리	-11.2152
▁만나는	-11.2153
안을	-11.2154
▁발생했다	-11.2155
▁드럼	-11.2156
보호	-11.2157
▁위력이	-11.2157
▁신도	-11.216
▁학사	-11.2161
위원장	-11.2161
▁톤	-11.2161
▁그로	-11.2164
▁바퀴	-11.2166
▁create	-11.2166
들만	-11.2169
하우스	-11.217
▁Parliament	-11.2172
▁라이플	-11.2172
▁국가들	-11.2174
▁저서	-11.2175
▁practice	-11.2175
마의	-11.2177
▁하이퍼	-11.2178
▁세이브	-11.2178
▁장애	-11.2179
▁조커	-11.2179
▁related	-11.218
▁히틀러	-11.218
▁Fe	-11.2182
▁결말	-11.2183
▁Coast	-11.2183
▁Avenue	-11.2185
사령부	-11.2188
▁성적이	-11.2193
▁여행을	-11.2193
▁approximately	-11.2193
▁sc	-11.2194
▁정체는	-11.2195
리스트	-11.22
can	-11.2202
▁상태이상	-11.2202
▁복수를	-11.2203
▁lived	-11.2203
▁선수를	-11.2204
▁빌려	-11.2206
▁난이도는	-11.2212
미야	-11.2212
▁Mad	-11.2212
▁해병대	-11.2213
cho	-11.2215
▁당신의	-11.2216
▁AM	-11.2218
▁super	-11.2218
▁상성	-11.2218
▁Eastern	-11.2219
▁인종	-11.2219
▁아니기	-11.222
▁당할	-11.2223
▁권장	-11.2228
不	-11.2229
▁Space	-11.2229
▁【	-11.2231
뷰	-11.2231
▁Province	-11.2232
▁좌절	-11.2233
포드	-11.2234
▁맞을	-11.2235
▁오디션	-11.2235
모델	-11.2235
▁이끌어	-11.2236
▁나선	-11.2237
안에	-11.2238
▁하에	-11.2239
水	-11.224
?!	-11.2242
▁선임	-11.2243
군단	-11.2244
호와	-11.2244
▁번에	-11.2245
▁Ser	-11.2247
▁만화가	-11.2248
▁지나가	-11.2248
▁모자라	-11.225
시스템	-11.2252
▁부자	-11.2252
▁캠퍼스	-11.2252
▁빛이	-11.2255
▁없애	-11.2256
duct	-11.2256
쇠	-11.2257
쟁이	-11.2257
▁싸움이	-11.2258
sky	-11.2258
▁애플	-11.2258
▁가상	-11.2259
복을	-11.2261
▁연구를	-11.2262
▁구리	-11.2264
써	-11.2265
之	-11.2265
▁구조를	-11.2266
DA	-11.2267
par	-11.2267
▁재직	-11.227
▁생길	-11.2271
▁Library	-11.2271
ever	-11.2272
▁극한	-11.2274
극장	-11.2274
▁수급	-11.2275
비는	-11.2275
강화	-11.2277
▁김경	-11.2278
▁material	-11.2279
▁가자	-11.228
▁후회	-11.2281
인과	-11.2282
업을	-11.2283
▁always	-11.2284
▁Ya	-11.2285
▁차지하고	-11.2287
burg	-11.2287
▁appearance	-11.2289
▁농담	-11.229
▁손님	-11.2291
▁켜	-11.2291
▁못해서	-11.2292
▁가벼운	-11.2292
▁리버풀	-11.2293
▁채보	-11.2293
ich	-11.2294
▁올라간다	-11.2294
▁여럿	-11.2295
▁포켓몬스터	-11.2297
▁대상을	-11.2297
▁earlier	-11.2297
▁넓	-11.2297
하기는	-11.2298
▁거라	-11.2299
▁소원	-11.2302
▁Williams	-11.2303
▁괴수	-11.2305
▁appears	-11.2311
▁이시	-11.2312
▁춤을	-11.2313
▁ha	-11.2313
세로	-11.2313
했다면	-11.2314
西	-11.2315
▁wide	-11.2316
연맹	-11.2317
▁그곳에서	-11.2317
ern	-11.2319
▁당원	-11.232
▁Winter	-11.2321
▁안정적인	-11.2321
미국	-11.2322
자에게	-11.2323
ona	-11.2323
▁army	-11.2327
▁Pi	-11.2329
е	-11.2331
▁이전까지	-11.2333
▁Britain	-11.2334
ability	-11.2334
▁der	-11.2334
해줄	-11.2335
▁Bob	-11.2335
기지	-11.2336
▁턱	-11.2336
▁패키지	-11.2336
▁신기	-11.2337
비치	-11.2338
▁2007,	-11.2338
▁포지션은	-11.2339
▁과장	-11.2339
▁바뀌어	-11.2341
▁후보가	-11.2342
▁모습과	-11.2342
아니	-11.2344
▁도착한	-11.2344
▁위치하고	-11.2344
▁remains	-11.2346
▁비전	-11.2348
▁배려	-11.2348
▁woman	-11.2348
mor	-11.2349
▁1925	-11.2349
방향	-11.2349
걸로	-11.235
▁마인	-11.2351
▁뒤에는	-11.2351
hr	-11.2352
▁tournament	-11.2352
▁×	-11.2354
▁nine	-11.2354
心	-11.2355
▁surface	-11.2355
숭	-11.2355
▁수습	-11.2358
▁전라북도	-11.2358
▁호환	-11.2358
▁올리고	-11.2359
▁중화민국	-11.2359
▁지역구	-11.2359
▁듣기	-11.2359
▁언데드	-11.236
▁para	-11.2361
▁감독으로	-11.2365
▁빨간색	-11.2365
▁JTBC	-11.2365
롬	-11.2365
▁올드	-11.2368
▁본명은	-11.2368
▁해피	-11.2368
나서	-11.2369
▁가죽	-11.2369
국민	-11.2369
uri	-11.2371
▁대포	-11.2372
▁피닉스	-11.2372
▁문단	-11.2372
▁key	-11.2372
▁마코토	-11.2373
▁인민	-11.2374
▁58	-11.2375
dia	-11.2375
var	-11.2376
▁따지면	-11.2376
놀이	-11.2377
스턴	-11.238
書	-11.2381
▁운이	-11.2382
▁semi	-11.2384
▁닉네임	-11.2386
▁chief	-11.2386
▁사고가	-11.2387
돼서	-11.239
▁해산	-11.239
▁컴	-11.2391
▁표정을	-11.2392
하는게	-11.2393
▁77	-11.2393
▁먹었다	-11.2396
관련	-11.2397
▁진급	-11.2397
=20	-11.2398
▁1921	-11.2405
카를	-11.2405
▁측면에서	-11.2406
▁59	-11.2406
▁변수	-11.2406
▁노바	-11.2406
▁거미	-11.2406
▁않았다는	-11.2407
▁지역이	-11.2407
▁왕실	-11.2407
또	-11.2407
▁주소	-11.2408
▁우라	-11.241
▁가공	-11.2411
▁교단	-11.2412
▁마감	-11.2412
스로	-11.2413
까진	-11.2414
▁루나	-11.2415
츄	-11.2416
We	-11.2419
위의	-11.242
▁패턴을	-11.2421
▁배우이다	-11.2422
▁역시나	-11.2422
▁Kar	-11.2428
▁날이	-11.243
▁그려	-11.243
▁흔한	-11.2431
크로	-11.2431
▁카트	-11.2432
▁Field	-11.2432
꼬	-11.2433
▁페이즈	-11.2433
▁1917	-11.2435
▁뜻으로	-11.2435
▁밟	-11.2435
▁나루토	-11.2435
▁하였으나	-11.2439
lock	-11.2439
리고	-11.2441
▁충분한	-11.2442
▁기사를	-11.2443
▁해양	-11.2444
▁날짜	-11.2444
▁만들어졌다	-11.2444
▁이른바	-11.2445
▁이사장	-11.2446
신문	-11.2446
▁Bal	-11.245
아서	-11.245
▁야간	-11.2451
▁fight	-11.2452
▁안경	-11.2452
▁정면	-11.2452
ria	-11.2453
▁date	-11.2453
:-2	-11.2454
떼	-11.2454
어요	-11.2454
▁포함해	-11.2456
▁사진이	-11.2456
▁되므로	-11.2457
▁차량이	-11.2458
▁마치고	-11.2458
▁보고서	-11.2458
▁조금만	-11.2459
▁부리	-11.2461
▁수록된	-11.2462
▁킬러	-11.2464
▁긴장	-11.2464
▁반도	-11.2465
▁issues	-11.2466
▁모스크바	-11.2466
▁상단	-11.2467
▁재회	-11.2467
▁Qu	-11.2467
▁키라	-11.2468
▁광산	-11.2468
▁train	-11.2469
▁drama	-11.2471
▁Three	-11.2472
▁본격적인	-11.2473
▁news	-11.2473
GB	-11.2474
▁동일하게	-11.2476
▁Jean	-11.2477
▁지위	-11.2477
▁적용된다	-11.2478
▁있겠다	-11.248
▁음악가	-11.2482
▁행위를	-11.2483
▁치킨	-11.2483
우라	-11.2483
▁울프	-11.2485
▁view	-11.2486
▁sa	-11.2486
을때	-11.2487
르트	-11.2487
▁반동	-11.2488
▁할인	-11.2489
초간	-11.2489
▁바둑	-11.249
nie	-11.249
히트	-11.249
종이	-11.2492
▁일제강점기	-11.2492
▁스탠드	-11.2492
▁직선	-11.2493
TE	-11.2494
fer	-11.2496
▁공감	-11.2497
▁실질적인	-11.2497
▁뒤집	-11.2498
▁minor	-11.2499
▁나왔는데	-11.25
느라	-11.2501
▁찬성	-11.2501
▁품고	-11.2502
▁지리	-11.2506
▁방향을	-11.2507
▁소문	-11.2507
▁기믹	-11.2507
▁페이스	-11.2507
▁Israel	-11.2509
▁경직	-11.2509
ED	-11.251
▁97	-11.2511
ole	-11.2511
▁Human	-11.2512
cus	-11.2512
▁1926	-11.2514
▁듯이	-11.2514
▁바가	-11.2514
▁차이로	-11.2515
▁정기	-11.2517
▁적대	-11.2517
▁싸움에서	-11.252
▁자체도	-11.252
웠	-11.2523
▁다르	-11.2524
▁Yu	-11.2527
▁바꾸는	-11.2528
▁증폭	-11.2528
ments	-11.2528
▁정해진	-11.2529
사에서	-11.2529
통신	-11.2531
▁뚫고	-11.2532
▁메달	-11.2532
▁모델로	-11.2533
▁대해서도	-11.2535
촉	-11.2536
▁찰스	-11.2538
체가	-11.2539
▁computer	-11.254
▁읽는	-11.2541
매치	-11.2541
▁규모가	-11.2542
▁약탈	-11.2542
レ	-11.2542
cer	-11.2544
▁미츠	-11.2546
▁담은	-11.2546
▁색상	-11.2546
now	-11.2547
▁스페인의	-11.2547
▁정상적인	-11.2548
▁번호	-11.2549
▁화력이	-11.2549
오의	-11.2551
а	-11.2555
ami	-11.2556
▁멤버로	-11.2557
▁Members	-11.2558
되어있다	-11.2561
▁인지도	-11.2561
▁많으며	-11.2562
▁Michigan	-11.2564
▁인디	-11.2564
▁입장에선	-11.2565
▁highest	-11.2569
▁문제에	-11.2569
▁스트리트	-11.257
▁이어진	-11.2571
▁끝나면	-11.2571
쉽	-11.2571
▁주장이	-11.2571
-21	-11.2571
▁미사	-11.2573
▁기다리고	-11.2573
▁억제	-11.2573
▁associated	-11.2574
▁규	-11.2574
졸	-11.2575
▁Mal	-11.2576
▁direct	-11.2576
▁Boy	-11.2577
▁week	-11.2578
▁드롭	-11.2579
▁프랑스어	-11.258
방법	-11.258
명과	-11.2582
▁concept	-11.2583
▁삶	-11.2583
▁확장팩	-11.2584
▁1923	-11.2584
▁엮	-11.2586
▁케인	-11.2587
▁올라왔다	-11.2588
▁Hi	-11.2589
▁넘어가는	-11.2589
▁패밀리	-11.259
▁늦	-11.2591
▁결전	-11.2592
▁지나면	-11.2593
▁course	-11.2594
내는	-11.2594
▁소통	-11.2594
▁비유	-11.2594
more	-11.2595
▁노멀	-11.2596
▁웅	-11.2596
오르	-11.2597
▁이승	-11.2597
▁내부에	-11.2598
▁목숨	-11.26
▁아랍	-11.2601
bit	-11.2602
▁수단	-11.2604
▁room	-11.2606
▁캐릭터들	-11.2607
▁already	-11.2607
ula	-11.2608
지사	-11.261
코드	-11.261
▁소문이	-11.2614
▁ver	-11.2615
주자	-11.2615
체계	-11.2616
▁friend	-11.2617
av	-11.2618
네요	-11.2618
▁때문이었다	-11.2619
공학	-11.2621
▁Boston	-11.2621
▁벽을	-11.2621
▁evidence	-11.2623
▁토모	-11.2626
▁디즈니	-11.2626
▁노란색	-11.2626
▁기울	-11.2626
▁western	-11.2626
▁일어날	-11.2627
▁metal	-11.2627
▁아들인	-11.2628
▁Ph	-11.2628
▁헛	-11.263
기록	-11.263
▁체험	-11.2631
▁Further	-11.2631
병이	-11.2632
sy	-11.2634
▁구조물	-11.2634
▁에드	-11.2636
▁있거나	-11.2638
▁actors	-11.2638
▁Joe	-11.2639
▁카더라	-11.2639
▁hospital	-11.264
오스	-11.264
▁사람으로	-11.2641
▁Bell	-11.2642
▁화력을	-11.2642
님이	-11.2644
▁덮	-11.2645
▁암살자	-11.2646
▁일요일	-11.2646
▁쌀	-11.2647
▁시카고	-11.2647
▁못했던	-11.2647
stone	-11.2647
▁근원	-11.2648
▁baseball	-11.2649
▁noted	-11.265
레이션	-11.265
▁승률	-11.265
▁넘치는	-11.2651
▁feature	-11.2651
미의	-11.2651
▁Airport	-11.2651
▁함부로	-11.2651
▁IV	-11.2652
▁76	-11.2653
FF	-11.2655
gan	-11.2657
▁답변	-11.2658
더스	-11.2658
村	-11.2659
▁신분	-11.2659
▁거는	-11.266
▁생겨	-11.266
장과	-11.266
▁드론	-11.2661
▁싱가포르	-11.2661
▁즐겨	-11.2664
▁웨스트	-11.2664
▁today	-11.2665
▁Latin	-11.2666
세포	-11.2667
▁세인트	-11.2668
▁순환	-11.2668
▁Gi	-11.2669
▁결혼식	-11.267
▁최근에	-11.2671
▁강등	-11.2672
▁lack	-11.2672
꾸	-11.2672
버려서	-11.2673
▁모델이	-11.2673
▁백업	-11.2675
▁당사자	-11.2677
▁longer	-11.2677
▁아가씨	-11.2678
박스	-11.2679
▁부장	-11.2681
▁아버지와	-11.2681
▁Corps	-11.2681
▁subject	-11.2683
▁religious	-11.2685
▁선수이다	-11.2685
▁04	-11.2685
▁나지	-11.2686
▁사라지고	-11.2686
장관	-11.2687
마스	-11.2689
▁700	-11.269
▁뜬금없이	-11.2692
▁미스터	-11.2693
▁개념이	-11.2693
▁상황은	-11.2694
not	-11.27
▁내린	-11.27
▁페이스북	-11.27
▁예언	-11.27
▁정신이	-11.2701
▁인터뷰를	-11.2704
▁너무나	-11.2704
▁Mike	-11.2705
▁changes	-11.2707
▁남매	-11.2707
동물	-11.2708
▁분산	-11.271
▁생략	-11.271
▁치즈	-11.2711
▁편에서	-11.2712
▁정통	-11.2713
장갑	-11.2713
▁공세	-11.2713
▁것일	-11.2714
▁칩	-11.2715
ama	-11.2715
ミ	-11.2716
cher	-11.2716
세요	-11.2717
-0	-11.2718
▁고객	-11.2718
자고	-11.2718
▁황후	-11.2719
▁읽어	-11.2719
▁강사	-11.272
▁교육을	-11.2722
▁trans	-11.2722
▁조이	-11.2725
▁첫째	-11.2726
ib	-11.2727
▁지불	-11.2727
▁남아있다	-11.2729
°	-11.2729
▁실내	-11.2729
▁전원이	-11.2732
▁느껴	-11.2732
▁갈색	-11.2735
▁선박	-11.2736
▁부위	-11.2736
▁잭슨	-11.2737
시와	-11.2737
▁시작해	-11.2739
zo	-11.274
▁지고	-11.2742
▁numerous	-11.2748
▁모듈	-11.2748
▁influence	-11.2749
MC	-11.275
▁정확하게	-11.2751
▁activities	-11.2751
화로	-11.2752
▁흔들	-11.2752
▁밖에서	-11.2754
▁벽에	-11.2755
영의	-11.2755
학부	-11.2756
oy	-11.2756
▁삼진	-11.2758
▁머신	-11.2758
▁이지	-11.2758
뇨	-11.2759
▁들어와	-11.2762
▁Oxford	-11.2762
▁학문	-11.2762
▁복사	-11.2763
▁투구	-11.2764
▁operated	-11.2764
▁원리	-11.2765
▁전해	-11.2766
から	-11.2767
▁mostly	-11.2768
▁문구	-11.2769
▁마피아	-11.2769
▁Polish	-11.2771
▁떠난다	-11.2773
▁산다	-11.2774
▁전쟁에서	-11.2774
▁너무나도	-11.2775
▁실은	-11.2776
▁후원	-11.2777
▁번도	-11.2778
▁원화	-11.2778
bb	-11.2778
RO	-11.2779
▁삽입	-11.2779
▁tracks	-11.2779
▁주의해야	-11.2779
▁programs	-11.278
▁고무	-11.2782
▁감각	-11.2783
▁보통은	-11.2783
하자마자	-11.2785
oma	-11.2785
명이다	-11.2788
▁카미	-11.2788
렸고	-11.2789
▁동행	-11.2789
?)	-11.2789
인지는	-11.2791
킥	-11.2791
▁파르	-11.2793
▁increased	-11.2794
▁별도로	-11.2794
▁하려고	-11.2795
▁개막	-11.2795
▁있었	-11.2796
▁대령	-11.2797
▁상황이었다	-11.2797
▁certain	-11.2798
▁Jim	-11.2799
▁적중	-11.28
▁혐의로	-11.28
▁Simon	-11.2801
▁보구	-11.2801
받	-11.2802
▁키리	-11.2802
▁말로는	-11.2803
▁전투력	-11.2803
▁Not	-11.2804
▁루크	-11.2805
▁OP	-11.2806
무장	-11.2807
▁sister	-11.2809
쪽으로	-11.281
▁제공한다	-11.2811
ese	-11.2811
▁카즈	-11.2811
▁의혹	-11.2813
▁Pacific	-11.2815
▁기아	-11.2816
사고	-11.2816
ね	-11.2818
▁부서	-11.282
문이	-11.282
▁적들을	-11.2821
SA	-11.2822
▁움직임	-11.2822
▁않음	-11.2822
조가	-11.2823
구에	-11.2824
▁나간다	-11.2824
▁발로	-11.2827
▁Governor	-11.2828
▁믿	-11.2831
▁청나라	-11.2831
군에서	-11.2831
▁차원에서	-11.2834
▁여섯	-11.2838
발을	-11.2838
▁한두	-11.2838
yard	-11.2839
식의	-11.2839
▁루피	-11.284
파가	-11.284
xi	-11.284
로운	-11.284
▁견해	-11.2841
코와	-11.2842
만명	-11.2842
안이	-11.2842
table	-11.2842
▁award	-11.2844
▁Illinois	-11.2845
gy	-11.2846
bre	-11.2847
▁역사가	-11.2848
그리	-11.2851
▁복선	-11.2851
▁format	-11.2855
▁이르는	-11.2856
▁다름	-11.2857
▁상대할	-11.2858
상에	-11.2859
▁issue	-11.286
▁이긴	-11.2861
▁Master	-11.2863
▁부재	-11.2863
ナ	-11.2864
시에는	-11.2864
▁리버	-11.2865
▁이야기는	-11.2866
▁Another	-11.2867
▁출격	-11.2868
▁유래는	-11.2868
▁도와주	-11.2868
▁property	-11.287
▁발견된	-11.2872
량은	-11.2873
▁에픽	-11.2873
▁규제	-11.2875
▁막대한	-11.2875
▁Commission	-11.2875
▁Georgia	-11.2875
론을	-11.2877
▁Head	-11.2877
▁recording	-11.2878
▁스미스	-11.2878
▁투척	-11.288
▁페널티	-11.2882
▁캐스터	-11.2883
▁갖게	-11.2884
동을	-11.2885
▁케이블	-11.2885
SP	-11.2885
ii	-11.2886
▁흠	-11.2886
美	-11.2886
▁senior	-11.2886
▁caused	-11.2887
▁기록하였다	-11.2889
OL	-11.2889
지금	-11.2891
피안타	-11.2891
SC	-11.2891
AR	-11.2892
왕후	-11.2894
▁이종	-11.2895
▁행운	-11.2896
▁일부가	-11.2897
▁리처드	-11.2897
자원	-11.2898
▁이슈	-11.2898
▁분할	-11.2899
aka	-11.29
▁Jan	-11.2902
▁Conference	-11.2903
▁이브	-11.2903
▁작년	-11.2903
스테	-11.2904
▁want	-11.2904
커스	-11.2904
▁남자가	-11.2905
술을	-11.2905
▁소련의	-11.2905
▁보라색	-11.2906
▁서로를	-11.2907
▁소니	-11.2907
판에	-11.2908
해질	-11.2908
▁지역으로	-11.2908
▁bo	-11.2908
are	-11.2908
▁1500	-11.2909
▁OS	-11.2909
▁않았으나	-11.2909
▁병과	-11.291
▁허가	-11.291
▁Ku	-11.2913
▁딸이	-11.2913
▁데려가	-11.2914
▁limited	-11.2915
마를	-11.2916
▁장성	-11.2916
▁토론	-11.2917
▁비례	-11.2917
rin	-11.2917
▁역임	-11.2918
▁입사	-11.2918
▁칭호	-11.2918
▁피하기	-11.2918
▁선수들의	-11.2919
▁대표하는	-11.2919
▁느낀	-11.292
▁합동	-11.292
▁위상	-11.2921
▁지내	-11.2922
▁언젠가	-11.2923
ned	-11.2923
히메	-11.2923
▁마틴	-11.2923
▁노동자	-11.2924
▁상당수	-11.2925
▁놀라	-11.2926
▁줄여	-11.2926
하자면	-11.2927
▁탓	-11.2928
uch	-11.2929
▁빛나는	-11.293
▁cases	-11.2932
▁등장할	-11.2932
▁은신	-11.2933
렘	-11.2935
키가	-11.2935
▁찍는	-11.2936
▁보았다	-11.2938
치의	-11.2938
▁포스트시즌	-11.2939
▁없지	-11.2939
▁바에	-11.294
▁운동을	-11.2941
▁function	-11.2941
▁던지는	-11.2944
▁뮌헨	-11.2944
기능	-11.2945
▁AT	-11.2945
ち	-11.2946
ob	-11.2946
▁officer	-11.2947
▁무언가	-11.2947
▁소중한	-11.2947
▁중동	-11.2948
소가	-11.2949
af	-11.2949
▁핸드	-11.295
▁망명	-11.295
成	-11.295
▁연봉	-11.2951
차전에서	-11.2951
ッ	-11.2951
타의	-11.2951
▁어쩌면	-11.2952
▁지키고	-11.2952
▁가나	-11.2953
▁becoming	-11.2954
ING	-11.2954
▁친구들	-11.2957
▁부르고	-11.2958
▁effect	-11.2959
▁장사	-11.2959
▁생각한	-11.2959
▁페르	-11.296
▁사건은	-11.296
▁Development	-11.2961
▁status	-11.2961
▁미국과	-11.2962
가미	-11.2962
▁오페라	-11.2963
▁나오게	-11.2964
出	-11.2964
▁Baseball	-11.2964
조를	-11.2965
시켜서	-11.2966
▁일시적으로	-11.2966
OR	-11.2966
▁것이기	-11.2967
▁어려워	-11.2967
▁Centre	-11.2968
▁팔아	-11.2968
▁조롱	-11.2968
ose	-11.2968
팡	-11.2969
▁택시	-11.2969
▁response	-11.297
ene	-11.2972
고속도로	-11.2973
▁마다	-11.2973
▁무리가	-11.2974
▁의미하는	-11.2978
▁stop	-11.2978
▁우측	-11.2978
캠퍼스	-11.2978
▁규모의	-11.2979
마르	-11.2979
▁챔피언스리그	-11.2979
▁죽이려	-11.2979
▁Cu	-11.298
▁15%	-11.2981
▁Ki	-11.2981
▁담아	-11.2984
▁Death	-11.2985
▁일행	-11.2986
천만	-11.2986
▁110	-11.2989
정신	-11.299
vent	-11.299
▁발표한	-11.2991
▁clubs	-11.2991
ral	-11.2991
▁물이	-11.2992
▁미라	-11.2992
▁둘다	-11.2993
▁사가	-11.2993
특히	-11.2997
▁똑같다	-11.2998
▁연습생	-11.2999
▁빠르고	-11.3
▁통칭	-11.3
ida	-11.3001
▁아이들	-11.3003
)/	-11.3003
▁시에	-11.3004
▁홋카이도	-11.3006
▁폭격	-11.3006
지점	-11.3006
▁펀치	-11.3007
▁대통령의	-11.3008
▁del	-11.3008
▁유발	-11.3009
▁재장전	-11.3009
루타	-11.301
수사	-11.301
eo	-11.3011
▁이겨	-11.3011
▁지원하는	-11.3012
▁뽑기	-11.3013
▁리스트	-11.3014
▁Their	-11.3015
▁폭탄을	-11.3015
국제	-11.3015
거라	-11.3016
▁주먹	-11.3016
▁최후	-11.3018
▁가을	-11.3021
▁이상은	-11.3021
들인	-11.3021
▁누구도	-11.3022
▁훔쳐	-11.3023
▁성과를	-11.3024
▁유니크	-11.3024
▁studies	-11.3026
▁독일어	-11.3027
▁주된	-11.3027
▁가르	-11.3027
▁한창	-11.3027
▁화해	-11.3029
▁맥주	-11.3029
마츠	-11.3029
ash	-11.3029
▁이어져	-11.303
▁확신	-11.303
▁majority	-11.3031
▁미쿠	-11.3031
▁비서	-11.3032
▁전력을	-11.3032
▁명칭이	-11.3034
ウ	-11.3034
▁공립	-11.3036
토가	-11.3037
▁갈아	-11.3039
寺	-11.304
계에	-11.304
▁정보가	-11.3041
있어	-11.3042
▁편하다	-11.3043
▁미치	-11.3043
▁성우가	-11.3045
▁시작할	-11.3045
▁아들을	-11.3045
▁TVA	-11.3046
드와	-11.3046
뜨	-11.3047
▁전송	-11.3047
▁개칭	-11.3048
▁공성	-11.3049
前	-11.3049
▁입자	-11.305
희가	-11.3053
▁선수는	-11.3053
쿠라	-11.3054
▁왕비	-11.3055
ET	-11.3056
pp	-11.3058
▁전남	-11.3058
법에	-11.3058
세기에	-11.3058
tar	-11.3059
아나	-11.3059
▁먹으면	-11.3059
냥	-11.306
▁사업을	-11.306
▁프로리그	-11.306
▁주관	-11.3063
▁스쿨	-11.3064
▁인터	-11.3064
▁전선	-11.3066
▁주행	-11.3068
▁있었기에	-11.3068
-11	-11.3069
▁구성원	-11.307
▁pp	-11.3071
▁기분이	-11.3071
▁관리자	-11.3072
장군	-11.3073
▁이어진다	-11.3076
▁매체	-11.3077
▁침대	-11.3078
▁난사	-11.3078
▁목적이	-11.308
▁타구	-11.3081
법은	-11.3081
▁loss	-11.3082
▁쌓	-11.3082
피스	-11.3082
Be	-11.3082
▁영양	-11.3083
▁matches	-11.3084
▁짤	-11.3084
To	-11.3084
▁서번트	-11.3084
▁악기	-11.3086
▁장난감	-11.3087
▁디자인이	-11.3088
▁사실이다	-11.309
▁내구도	-11.309
▁전향	-11.309
▁미상	-11.3092
▁이동속도	-11.3096
▁이유도	-11.3097
▁전쟁의	-11.3099
▁Francisco	-11.3099
제작	-11.31
like	-11.31
나리	-11.3102
▁editor	-11.3103
▁성남	-11.3103
었기	-11.3104
▁사고로	-11.3105
▁진행된다	-11.3106
▁달하는	-11.3107
▁referred	-11.3108
▁물에	-11.3109
▁호남	-11.3109
▁직장	-11.311
▁우위를	-11.3113
▁below	-11.3114
▁쓸만한	-11.3114
▁특징이	-11.3115
▁싶을	-11.3116
▁Chris	-11.3116
見	-11.3116
스에게	-11.3117
닐	-11.3119
wing	-11.3121
▁어뢰	-11.3122
▁energy	-11.3124
▁막상	-11.3125
▁와일드	-11.3126
▁Johnson	-11.3126
골드	-11.3127
▁서울시	-11.3129
▁열고	-11.313
▁Des	-11.313
▁우정	-11.313
▁쪽에서	-11.3131
▁union	-11.3131
▁유대인	-11.3135
▁takes	-11.3135
▁존스	-11.3135
파를	-11.3136
으려	-11.3137
▁액티브	-11.3137
▁lines	-11.3139
▁입증	-11.3139
▁엔젤	-11.3139
▁미카	-11.314
▁자세	-11.3141
▁기상	-11.3141
있으며	-11.3142
▁힐러	-11.3142
▁없다며	-11.3149
▁주교	-11.3153
▁측은	-11.3153
▁누리	-11.3154
▁비율이	-11.3154
▁speed	-11.3154
▁방영된	-11.3155
▁engine	-11.3156
▁한방에	-11.3156
▁빌런	-11.3157
▁들지	-11.3157
▁으	-11.3158
▁report	-11.3158
▁멘	-11.3158
▁카타	-11.3159
▁않다는	-11.316
지며	-11.3163
▁서포트	-11.3163
카르	-11.3164
▁나무위키	-11.3164
tre	-11.3165
▁존경	-11.3166
크가	-11.3166
▁텍스트	-11.3167
▁준공	-11.3167
▁relationship	-11.3169
▁범인	-11.3169
▁prior	-11.3169
▁Fi	-11.317
▁모토	-11.317
▁Ed	-11.3171
떡	-11.3172
▁센서	-11.3172
▁드래프트	-11.3172
▁고치	-11.3173
▁민주주의	-11.3173
▁진정	-11.3174
▁영광	-11.3174
▁집어	-11.3174
▁물량	-11.3175
▁management	-11.3176
▁Ten	-11.3176
▁능력치가	-11.3176
▁의식을	-11.3177
▁확정되었다	-11.3178
▁타이탄	-11.3178
▁뿔	-11.3178
▁Network	-11.3179
▁Marine	-11.318
심이	-11.3183
형의	-11.3184
▁의학	-11.3184
▁federal	-11.3184
오리	-11.3185
적이다	-11.3185
▁주제가	-11.3185
▁separate	-11.3185
테스	-11.3185
▁제독	-11.3187
武	-11.3187
太	-11.319
▁Premier	-11.319
▁긍정적인	-11.3191
권은	-11.3191
▁움직임을	-11.3191
▁Championships	-11.3192
▁초에	-11.3193
▁일어난다	-11.3194
툰	-11.3196
▁탄창	-11.3196
▁입문	-11.3196
▁인가	-11.3197
▁토마스	-11.3198
하루	-11.3199
▁타이밍	-11.3202
▁반응은	-11.3202
안전	-11.3202
▁cost	-11.3202
▁싹	-11.3203
▁130	-11.3204
▁좋지만	-11.3205
▁source	-11.3205
▁파밍	-11.3205
▁스타리그	-11.321
▁국방	-11.321
▁승리로	-11.3211
화는	-11.3212
비행	-11.3213
▁딸을	-11.3213
▁않았으며	-11.3214
▁공방	-11.3215
▁공인	-11.3215
▁clear	-11.3216
놓	-11.3217
▁주목을	-11.3217
▁포드	-11.3218
▁당초	-11.3221
▁써먹	-11.3221
▁피로	-11.3222
경이	-11.3223
▁침투	-11.3224
▁스파	-11.3226
▁h	-11.3228
▁theory	-11.3228
전기	-11.323
▁조선시대	-11.323
▁dance	-11.3232
▁championship	-11.3232
▁샷건	-11.3234
▁유입	-11.3234
▁트롤	-11.3236
▁걸그룹	-11.3237
▁여우	-11.3237
▁사람과	-11.3237
▁않	-11.3238
▁생방송	-11.3239
보기	-11.3243
▁보이기도	-11.3243
크의	-11.3244
▁간간히	-11.3244
▁기대를	-11.3244
▁Bad	-11.3245
졌는데	-11.3249
▁플레이어에게	-11.3252
형은	-11.3252
▁2008,	-11.3252
팀의	-11.3253
▁찍고	-11.3253
tis	-11.3254
해주	-11.3254
덤	-11.3257
▁아베	-11.3257
yo	-11.3259
▁5000	-11.326
차례	-11.326
▁중지	-11.3261
▁보내고	-11.3261
白	-11.3262
▁정책을	-11.3263
▁왜곡	-11.3265
▁대신에	-11.3265
▁leaving	-11.3267
▁메이지	-11.3268
▁마스크	-11.3268
소설	-11.3268
▁관계자	-11.3268
▁끊어	-11.327
▁패배를	-11.327
anchor	-11.3273
ast	-11.3273
▁복합	-11.3274
▁논쟁	-11.3275
틸	-11.3275
▁selected	-11.3276
TC	-11.3276
law	-11.3277
웠다	-11.3277
▁Office	-11.3278
▁사망한다	-11.3278
▁마비	-11.3278
▁조기	-11.3278
▁terms	-11.3282
겠다며	-11.3282
ake	-11.3283
▁탐정	-11.3284
▁참여했다	-11.3284
▁지지를	-11.3285
▁짐승	-11.3286
▁코인	-11.3286
▁믿을	-11.3287
▁Val	-11.3289
▁명단	-11.3289
dar	-11.3289
ava	-11.3291
▁안으로	-11.3293
▁겹쳐	-11.3293
▁어빌리티	-11.3293
클럽	-11.3294
프트	-11.3294
▁프로게이머	-11.3296
▁Za	-11.3297
▁Let	-11.3297
▁틈을	-11.3298
▁줄거리	-11.3299
파크	-11.3299
▁forced	-11.3299
▁공업	-11.3301
las	-11.3302
▁실질적으로	-11.3302
▁안개	-11.3303
▁done	-11.3304
했으니	-11.3304
▁위치가	-11.3306
▁권유	-11.3306
▁템	-11.3307
▁appearances	-11.3308
▁디자이너	-11.3308
▁모임	-11.3308
▁1908	-11.331
▁기억이	-11.3311
▁남을	-11.3311
gue	-11.3312
하여야	-11.3313
하의	-11.3313
▁Down	-11.3315
▁사랑의	-11.3316
▁Creek	-11.3317
ox	-11.3317
▁나뉘어	-11.3317
▁63	-11.3319
1)	-11.3324
部	-11.3325
▁이영	-11.3326
bert	-11.3327
▁오다	-11.3327
▁무시무시한	-11.3328
▁즐기는	-11.3329
dra	-11.3329
▁닉	-11.333
▁Les	-11.333
흑	-11.3332
sing	-11.3333
▁여기에서	-11.3333
▁movie	-11.3334
tel	-11.3334
옷	-11.3335
▁알지	-11.3336
▁오메가	-11.3336
FA	-11.3337
▁이라는	-11.3337
▁retired	-11.3337
▁hours	-11.334
▁받으면	-11.3341
▁Main	-11.3342
붕	-11.3342
▁모험가	-11.3344
▁Wa	-11.3345
▁배달	-11.3346
▁폭파	-11.3347
▁추리	-11.3348
▁foreign	-11.3348
틀리	-11.335
▁여러분	-11.3351
가면서	-11.3353
▁암시	-11.3354
▁일본에서는	-11.3357
è	-11.3358
▁160	-11.3358
▁초청	-11.3359
곰	-11.3359
▁황제의	-11.336
▁여타	-11.3362
▁취업	-11.3363
니다	-11.3365
▁영혼을	-11.3366
과정	-11.3366
▁김지	-11.3366
▁로그	-11.3367
▁일행은	-11.3368
▁포함된	-11.337
▁트라이	-11.337
▁구상	-11.3371
▁Tra	-11.3371
칙	-11.3372
듀	-11.3372
▁찾아내	-11.3374
▁경악	-11.3374
▁선택지	-11.3374
▁길고	-11.3375
▁방어력이	-11.3375
▁사용시	-11.3376
▁연상	-11.3376
점은	-11.3376
▁larger	-11.3377
▁꼬마	-11.3377
▁추방	-11.3378
▁personal	-11.3378
yan	-11.3383
▁유료	-11.3384
▁따르는	-11.3385
▁끊임없이	-11.3386
▁나뉜다	-11.3386
▁highway	-11.3386
▁로얄	-11.3386
▁영웅이	-11.3387
▁여기서는	-11.3389
▁annual	-11.3389
▁하나다	-11.3391
▁언더	-11.3391
▁Books	-11.3392
▁노부	-11.3393
▁돌아간다	-11.3394
▁소규모	-11.3399
新	-11.3399
▁외형	-11.3401
▁이러	-11.3401
▁없습니다	-11.3401
▁meaning	-11.3403
ctor	-11.3406
▁Cap	-11.3407
▁획득할	-11.3407
▁Com	-11.3408
▁무대를	-11.3409
▁판정을	-11.3409
▁기름	-11.3409
▁포스터	-11.3411
ms	-11.3412
전차	-11.3414
▁발견한	-11.3417
▁폭로	-11.3417
▁조리	-11.3417
▁것입니다	-11.3417
▁대항	-11.3419
▁편인데	-11.3419
▁Vo	-11.3419
mus	-11.3421
▁실수를	-11.3421
▁(5	-11.3427
▁찾아온	-11.3428
▁개장	-11.3433
▁유출	-11.3433
던지	-11.3434
▁찾고	-11.3436
▁일본판	-11.3437
▁수염	-11.3437
▁towns	-11.3437
뮤	-11.3438
▁행동이	-11.3439
▁엘리베이터	-11.3441
▁살아남은	-11.3441
ST	-11.3442
했음에도	-11.3442
▁Foundation	-11.3442
▁마을을	-11.3443
▁나오지만	-11.3444
▁싶으면	-11.3444
이었다는	-11.3445
▁에피소드에서	-11.3446
▁선행	-11.3446
▁Back	-11.3447
▁부수	-11.3448
▁엔진을	-11.3449
▁감정이	-11.3449
▁시사	-11.3449
▁2009,	-11.345
▁Who	-11.3451
▁찾아볼	-11.3451
▁깨닫고	-11.3452
▁신형	-11.3452
▁내리는	-11.3452
FC	-11.3453
미나	-11.3456
▁murder	-11.3459
방을	-11.346
▁성당	-11.3461
▁순수한	-11.3462
▁뛰어나다	-11.3463
▁university	-11.3465
▁러	-11.3466
▁호불호가	-11.3467
▁particularly	-11.3469
▁장애물	-11.3469
패스	-11.3471
▁봤을	-11.3471
▁명중률	-11.3471
▁사립	-11.3472
eri	-11.3474
▁decision	-11.3474
▁그러므로	-11.3474
▁매력	-11.3476
됨에	-11.3477
▁기술은	-11.3479
▁글이	-11.3479
▁serving	-11.348
tan	-11.3481
▁철권	-11.3482
▁might	-11.3483
▁않았기	-11.3484
▁늘어나	-11.3487
▁어디서	-11.3488
▁pay	-11.349
▁다가가	-11.3491
▁아이언	-11.3492
▁Justice	-11.3492
900	-11.3493
▁광장	-11.3495
▁자체에	-11.3496
▁도시철도	-11.3496
ax	-11.3498
▁가능하고	-11.3498
▁드러났다	-11.3498
▁여성의	-11.3499
▁제약	-11.3499
▁유학	-11.3499
▁크림	-11.3502
▁버전으로	-11.3503
▁당신은	-11.3504
▁헌	-11.3504
eg	-11.3505
파워	-11.3505
챠	-11.3505
▁영향이	-11.3506
리나	-11.3506
▁가능하지만	-11.3507
▁봉쇄	-11.3507
▁대량	-11.3508
냈	-11.3509
▁헤어	-11.3509
▁SA	-11.3509
▁만들어낸	-11.351
▁편이고	-11.351
▁지경	-11.3511
こ	-11.3511
자들	-11.3512
ition	-11.3512
▁상무	-11.3512
▁article	-11.3513
▁Philadelphia	-11.3515
▁중심지	-11.3515
▁필요는	-11.3516
▁권력을	-11.3516
포트	-11.3516
▁지대	-11.3518
▁히든	-11.3518
▁진행되었다	-11.3519
▁이웃	-11.3519
▁회사의	-11.3519
▁검술	-11.352
▁master	-11.352
▁passed	-11.3521
시키지	-11.3522
▁쓰게	-11.3525
▁웨이브	-11.3527
▁GT	-11.3528
▁How	-11.3528
▁후반부에	-11.3528
엠	-11.3529
Mar	-11.353
▁간섭	-11.3531
▁혈통	-11.3531
▁내용의	-11.3531
즉	-11.3532
▁오브젝트	-11.3533
▁이외에	-11.3533
묵	-11.3534
▁김상	-11.3534
▁유혹	-11.3536
▁평가는	-11.3536
학회	-11.3537
채널	-11.3537
▁끼고	-11.3538
▁제주도	-11.3538
北	-11.3539
▁shown	-11.354
▁진행된	-11.3541
▁아스카	-11.3541
▁순으로	-11.3542
비용	-11.3543
OO	-11.3543
▁않는다면	-11.3544
개국	-11.3544
▁financial	-11.3545
▁entered	-11.3545
kr	-11.3546
▁1912	-11.3546
▁historical	-11.3546
▁인재	-11.3546
▁Ontario	-11.3548
▁드러난다	-11.3548
▁검토	-11.3548
▁그러면서	-11.3548
▁크레	-11.3548
▁기부	-11.355
▁조선민주주의인민공화국	-11.355
ign	-11.3551
▁Anti	-11.3551
▁불과하다	-11.3551
▁옹호	-11.3552
▁고종	-11.3555
▁block	-11.3556
▁유용한	-11.3556
▁국방부	-11.3558
language	-11.3559
▁이해할	-11.3562
▁Hot	-11.3563
▁세르비아	-11.3563
▁Wilson	-11.3563
▁저택	-11.3563
▁키타	-11.3563
▁아레나	-11.3564
▁von	-11.3564
해버렸다	-11.3564
▁반란을	-11.3564
▁어머니는	-11.3565
▁보라	-11.3565
▁자비	-11.3565
코어	-11.3565
ili	-11.3565
▁Alexander	-11.3565
▁일본은	-11.3566
▁개명	-11.3566
▁작품으로	-11.3566
ON	-11.3566
▁Family	-11.3566
▁촬영한	-11.3566
▁account	-11.3566
▁근대	-11.3567
▁이토	-11.357
▁문신	-11.357
▁삐	-11.357
$	-11.3571
▁감탄	-11.3573
▁마법의	-11.3573
회전	-11.3575
pin	-11.3575
았던	-11.3576
▁leave	-11.3576
▁어마어마한	-11.3577
eng	-11.3577
▁Sydney	-11.3577
▁상영	-11.3577
oul	-11.3578
▁launched	-11.3579
했을때	-11.3579
▁워커	-11.358
He	-11.3581
있	-11.3581
▁설령	-11.3582
▁dead	-11.3582
상황	-11.3582
▁규격	-11.3584
▁질투	-11.3584
학적	-11.3584
▁초기에	-11.3584
판에서	-11.3585
▁이전부터	-11.3585
▁Christ	-11.3586
▁스피	-11.3587
범위	-11.3587
ack	-11.3588
nu	-11.3588
▁형태가	-11.3588
▁적고	-11.359
▁하라	-11.359
▁물러나	-11.3591
▁뜬다	-11.3592
▁모순	-11.3592
타는	-11.3592
▁구간은	-11.3593
▁채워	-11.3593
났다	-11.3593
▁시즈	-11.3595
▁비주얼	-11.3595
▁만남	-11.3596
니가	-11.3596
▁재사용	-11.3596
머스	-11.3597
▁토요일	-11.3597
▁Personal	-11.3597
▁아니더라도	-11.3597
파이어	-11.36
▁일일	-11.3602
▁여기까지	-11.3603
ku	-11.3604
▁제작에	-11.3605
▁의장	-11.3605
코프	-11.3606
▁Kong	-11.3606
▁가담	-11.3606
▁흙	-11.361
▁알렉스	-11.361
▁당대	-11.3612
마력	-11.3612
▁선택한	-11.3613
▁결제	-11.3613
▁왔	-11.3613
▁운영하고	-11.3614
▁실종	-11.3614
▁수장	-11.3614
下	-11.3616
▁마친	-11.3618
▁로스앤젤레스	-11.3619
▁최대의	-11.3619
▁이번엔	-11.362
▁normal	-11.362
▁내면	-11.3622
▁경험을	-11.3625
▁ad	-11.3625
▁Cre	-11.3627
▁나중에는	-11.3627
/3	-11.3627
▁손오공	-11.3628
▁어울리는	-11.3629
▁영상에서	-11.363
wan	-11.363
일보	-11.3631
▁mis	-11.3631
▁Miss	-11.3632
식은	-11.3632
▁Ray	-11.3634
▁것인가	-11.3635
▁스티브	-11.3635
▁차량을	-11.3635
▁allow	-11.3636
▁배제	-11.3636
▁세라	-11.3637
▁제가	-11.3637
▁그러	-11.364
▁천천히	-11.364
▁비롯해	-11.364
▁심사	-11.364
▁창원	-11.364
▁oil	-11.3641
ensis	-11.3641
▁매각	-11.3642
▁themselves	-11.3643
▁베리	-11.3644
해온	-11.3645
▁카를	-11.3646
▁Han	-11.3646
편성	-11.3647
웨	-11.3651
▁비웃	-11.3652
▁체육관	-11.3652
▁eastern	-11.3653
▁게임이다	-11.3654
공을	-11.3654
▁Shi	-11.3654
▁Forest	-11.3654
조에	-11.3654
▁OVA	-11.3656
▁활동하는	-11.3656
▁하늘을	-11.3657
▁그러니	-11.3657
▁고집	-11.3658
▁이마	-11.3659
▁벤치	-11.3659
▁제갈량	-11.3661
▁제안을	-11.3662
▁fall	-11.3663
▁Sound	-11.3664
▁달성했다	-11.3664
▁기동성	-11.3665
인칭	-11.3665
▁두들겨	-11.3666
▁있기도	-11.3667
▁대면	-11.3667
▁ancient	-11.3668
▁수요가	-11.3669
▁ice	-11.3669
NA	-11.367
▁아사히	-11.3671
▁일으키는	-11.3671
히토	-11.3671
▁고쳐	-11.3672
▁바뀌는	-11.3677
▁알려지지	-11.3677
▁모를	-11.3677
란트	-11.3679
▁AKB	-11.368
view	-11.3681
和	-11.3682
▁노무현	-11.3682
▁얼굴에	-11.3682
▁2:	-11.3682
▁명문	-11.3684
아와	-11.3685
)》	-11.3685
▁퇴각	-11.3686
▁베테랑	-11.3688
▁자제	-11.3688
act	-11.3688
▁상대방의	-11.369
▁Berlin	-11.369
▁act	-11.369
ato	-11.3691
▁Dar	-11.3692
LE	-11.3693
5,000	-11.3695
▁고블린	-11.3695
▁이번에도	-11.3697
아키	-11.3702
▁oh	-11.3703
▁탐사	-11.3704
▁같은데	-11.3704
▁사퇴	-11.3704
프레	-11.3706
▁acquired	-11.3707
▁바텀	-11.3707
▁휴가	-11.3707
▁ca	-11.3709
적으로는	-11.371
▁모드를	-11.3711
二	-11.3711
▁롤드컵	-11.3712
줬다	-11.3712
▁현금	-11.3714
▁네임드	-11.3714
メ	-11.3715
▁부르기도	-11.3715
제는	-11.372
▁끝났	-11.372
▁코코	-11.372
wer	-11.3723
▁용량	-11.3724
▁플레	-11.3724
▁교리	-11.3725
▁structures	-11.3726
▁마신	-11.3727
▁잊지	-11.3728
▁뉴질랜드	-11.3729
▁유일	-11.373
▁남아있	-11.373
▁앞의	-11.373
▁부동산	-11.3731
▁소금	-11.3731
▁최우수	-11.3733
사이드	-11.3735
▁화석	-11.3737
▁Daniel	-11.3742
▁무거운	-11.3742
▁타케	-11.3743
시타	-11.3744
▁관람	-11.3744
▁build	-11.3744
Ro	-11.3745
▁몬스터가	-11.3745
▁스트라이커	-11.3745
▁주의할	-11.3745
▁도깨비	-11.3745
▁리틀	-11.3747
▁Songs	-11.3747
셨	-11.3748
즈를	-11.3749
▁슛	-11.3749
▁listing	-11.375
▁트레일러	-11.3751
▁대구광역시	-11.3751
▁가설	-11.3751
▁날리	-11.3752
▁도루	-11.3752
▁오더	-11.3753
▁forms	-11.3754
▁작품에	-11.3754
▁troops	-11.3754
공단	-11.3755
아를	-11.3756
▁신경을	-11.3756
▁히라	-11.3756
요리	-11.3756
주지	-11.3757
역과	-11.3757
面	-11.3757
▁않으나	-11.3757
▁Ber	-11.3758
▁offered	-11.3759
▁위주의	-11.376
랙	-11.3761
▁펄	-11.3763
▁말씀	-11.3764
▁캐릭터들이	-11.3765
▁나갔다	-11.3766
▁천안	-11.3768
▁맞추기	-11.3769
▁배가	-11.377
▁도시를	-11.3771
rid	-11.3771
▁승객	-11.3772
▁파란	-11.3773
▁Design	-11.3773
▁사이에서는	-11.3774
▁불이	-11.3774
▁지원한다	-11.3774
▁모형	-11.3775
▁나폴레옹	-11.3775
▁amount	-11.3775
▁저하	-11.3776
선과	-11.3776
▁pop	-11.3777
▁갖는	-11.3777
비스	-11.3778
ple	-11.3778
▁상식	-11.3779
학기	-11.3782
タ	-11.3783
▁☆	-11.3784
▁Single	-11.3785
▁호평	-11.3785
▁무효화	-11.3785
iss	-11.3786
▁보호막	-11.3788
▁약점을	-11.379
▁ob	-11.379
▁Girl	-11.3791
보드	-11.3791
▁Mon	-11.3792
녹	-11.3792
▁140	-11.3793
▁host	-11.3793
▁Medal	-11.3794
▁†	-11.3795
▁영향력을	-11.3795
▁civil	-11.3795
▁선보였다	-11.3796
▁편이며	-11.3797
eh	-11.3797
▁해머	-11.3797
룰	-11.3797
벌레	-11.3798
▁subsequently	-11.3798
유리	-11.3798
딸	-11.3799
▁Moon	-11.38
제한	-11.38
▁강원	-11.38
▁목적을	-11.38
▁듣지	-11.38
▁review	-11.3801
▁영지	-11.3801
▁marriage	-11.3802
▁저는	-11.3803
▁단행본	-11.3803
▁전과	-11.3805
▁일화	-11.3807
PC	-11.3811
해준	-11.3811
▁잠실	-11.3813
▁Despite	-11.3815
▁강간	-11.3815
▁관계는	-11.3816
▁weeks	-11.3816
▁테이	-11.3817
▁됨	-11.3818
▁분기	-11.3819
▁알려주	-11.3819
▁Republican	-11.382
기획	-11.382
▁아니야	-11.3821
▁단위로	-11.3821
ball	-11.3824
어스	-11.3826
▁initially	-11.3826
대와	-11.3827
▁경북	-11.3828
о	-11.3829
▁이걸로	-11.383
▁value	-11.3831
▁트레이너	-11.3831
▁Steve	-11.3834
▁도둑	-11.3835
UM	-11.3835
▁이런저런	-11.3836
▁Em	-11.3839
▁고통을	-11.3839
fe	-11.384
▁Media	-11.384
▁본명	-11.384
▁찍	-11.384
tle	-11.3841
▁단독으로	-11.3841
얀	-11.3841
▁Lady	-11.3842
거래	-11.3843
▁핑크	-11.3844
sia	-11.3846
▁선사	-11.3846
▁유성	-11.3846
▁깔	-11.3848
▁farm	-11.3848
롭	-11.3849
▁재건	-11.3849
략	-11.385
▁클론	-11.3851
금지	-11.3852
▁리타이어	-11.3852
▁00	-11.3852
▁쓰인	-11.3852
▁모은	-11.3853
단은	-11.3854
▁함락	-11.3854
▁개인의	-11.3856
▁원작에서는	-11.3857
▁북한의	-11.3859
▁루카	-11.3859
▁Dance	-11.386
▁모르게	-11.3862
▁훈장	-11.3863
▁국군	-11.3864
▁보험	-11.3864
▁길다	-11.3864
▁잡았다	-11.3865
▁숨어	-11.3866
▁지정되었다	-11.3866
▁da	-11.3869
▁수색	-11.3869
▁에드워드	-11.387
공연	-11.3872
테크	-11.3875
▁언급된다	-11.3876
▁Victoria	-11.3877
▁휴식	-11.3877
▁감옥	-11.3878
노미야	-11.3879
예술	-11.3879
nce	-11.388
헤드	-11.3881
▁believed	-11.3882
구로	-11.3884
깨	-11.3884
시키며	-11.3885
▁middle	-11.3885
▁마케팅	-11.3885
낭	-11.3886
▁sta	-11.3889
▁특이하게도	-11.3889
▁medical	-11.3891
▁부친	-11.3894
▁띠	-11.3895
▁스트리머	-11.3896
경기에서	-11.3897
▁태도	-11.3898
▁특화	-11.39
▁발견하고	-11.39
▁최종적으로	-11.3901
지면서	-11.3901
사진	-11.3902
▁makes	-11.3903
▁관여	-11.3907
▁Gal	-11.3909
▁내부에서	-11.3909
▁반면에	-11.391
되었다는	-11.391
인들의	-11.3913
▁듣게	-11.3913
▁퍼즐	-11.3913
스런	-11.3914
▁유전	-11.3915
▁나들목	-11.3916
▁중부	-11.3917
▁과학자	-11.3918
▁부속	-11.3919
▁아군이	-11.3922
New	-11.3922
▁heavy	-11.3923
▁Final	-11.3924
▁words	-11.3927
▁Rose	-11.3929
▁벌이는	-11.393
del	-11.3931
▁프린세스	-11.3931
▁뮤	-11.3931
▁NFL	-11.3932
▁옵션이	-11.3933
▁존중	-11.3933
▁모델링	-11.3933
군요	-11.3934
▁의미는	-11.3935
ros	-11.3936
마치	-11.3937
▁BS	-11.3938
공장	-11.3938
▁빗	-11.3939
툼	-11.3941
▁쉴드	-11.3941
▁상주	-11.3945
▁새누리당	-11.3946
▁Way	-11.3948
▁기본으로	-11.3948
▁상징하는	-11.3948
cing	-11.3949
▁케빈	-11.3949
▁Stone	-11.395
▁입는	-11.395
▁샷	-11.395
▁로빈	-11.3951
木	-11.3952
▁서로의	-11.3952
▁particular	-11.3953
▁손이	-11.3953
:1	-11.3954
▁특성이	-11.3954
▁말하자	-11.3954
▁일주일	-11.3954
▁포스트	-11.3956
▁기동전사	-11.3956
▁않았는데	-11.3957
영은	-11.3957
▁68	-11.3957
▁Assembly	-11.3959
▁유진	-11.3959
▁양반	-11.3959
▁기록하고	-11.3962
ants	-11.3962
대교	-11.3967
▁미미	-11.3968
▁정도를	-11.3968
▁싼	-11.3969
▁assistant	-11.3969
헤이	-11.3969
PA	-11.3969
▁원작에서	-11.3969
EL	-11.3969
▁공수	-11.3971
uc	-11.3972
kar	-11.3972
dic	-11.3974
▁갱	-11.3975
야만	-11.3976
▁시작하여	-11.3977
▁한일	-11.3979
ire	-11.398
▁정체가	-11.398
石	-11.398
▁Biography	-11.398
▁애쉬	-11.3981
▁아니라서	-11.3982
수준	-11.3984
▁벨트	-11.3984
▁배구	-11.3985
▁Bishop	-11.3986
ture	-11.3987
CA	-11.3988
라니	-11.3988
작가	-11.399
▁department	-11.3991
▁없었지만	-11.3992
▁진단	-11.3993
▁골라	-11.3993
▁판사	-11.3994
▁minutes	-11.3994
▁진행되는	-11.3994
▁인식이	-11.3995
▁Wall	-11.3997
▁우승자	-11.3998
▁port	-11.3999
▁Nu	-11.4
▁한계가	-11.4
▁예약	-11.4001
▁2.5	-11.4001
▁전쟁에	-11.4002
▁치안	-11.4002
남자	-11.4002
▁지구의	-11.4004
ses	-11.4007
▁Win	-11.4008
▁전당	-11.4009
▁건물이	-11.4009
▁서서	-11.4009
▁농장	-11.401
▁모델은	-11.4011
▁Je	-11.4011
▁대가로	-11.4012
▁broadcast	-11.4013
리지	-11.4013
bel	-11.4014
▁medal	-11.4014
▁분노한	-11.4016
▁투명	-11.4016
▁더해	-11.4016
▁관료	-11.4016
테라	-11.4017
천군	-11.4017
▁expatriate	-11.4017
▁한국판	-11.4018
끝	-11.4019
뱅	-11.402
▁라면	-11.4021
▁페스티벌	-11.4021
간에	-11.4022
▁마계	-11.4024
▁오면	-11.4024
▁나라를	-11.4025
▁세번째	-11.4026
▁난이도를	-11.4026
▁대시	-11.4028
스코	-11.4028
▁출입	-11.4029
▁자본	-11.4029
▁왜냐하면	-11.403
▁박정희	-11.403
▁성격은	-11.4032
ale	-11.4032
vers	-11.4032
▁council	-11.4033
▁가리키는	-11.4033
▁독립운동가	-11.4034
▁부착	-11.4034
▁높지	-11.4036
▁Ol	-11.4038
▁보건	-11.4038
▁하프	-11.4039
▁0.5	-11.4039
▁(16	-11.4044
▁혹시	-11.4044
lum	-11.4044
▁채팅	-11.4045
땐	-11.4046
겔	-11.4046
▁Fate	-11.4047
▁리오	-11.4047
▁동반	-11.4049
▁충성	-11.4049
▁행정구역	-11.4049
▁remaining	-11.405
▁메이드	-11.4051
▁감상	-11.4051
▁helped	-11.4053
물질	-11.4053
▁기재	-11.4055
▁시조	-11.4055
▁학생회	-11.4056
▁대동	-11.4058
▁추천한다	-11.4059
▁밑에서	-11.4059
▁내일	-11.4059
▁딘	-11.406
star	-11.406
▁인천광역시	-11.4061
▁못하다	-11.4061
TS	-11.4061
▁GS	-11.4061
▁represented	-11.4061
▁참가한	-11.4062
▁타이틀곡	-11.4062
▁이틀	-11.4062
▁cause	-11.4063
▁타마	-11.4063
▁품질	-11.4064
▁관우	-11.4064
▁CS	-11.4065
▁crew	-11.407
봐야	-11.4071
lia	-11.4075
▁결정적으로	-11.4075
▁정도면	-11.4076
▁정예	-11.4076
▁claimed	-11.4078
▁명나라	-11.4078
▁CG	-11.4079
야구	-11.4079
▁벌인	-11.408
▁05	-11.408
▁다큐멘터리	-11.4081
▁있을까	-11.4082
▁철저히	-11.4083
You	-11.4083
▁sector	-11.4084
▁특전	-11.4085
▁완화	-11.4085
선거	-11.4086
▁용인	-11.4086
▁제트	-11.4086
▁comedy	-11.4086
아는	-11.4087
▁확인되었다	-11.4089
▁마스	-11.409
▁타이틀을	-11.409
▁썰	-11.4091
▁사촌	-11.4092
▁아래와	-11.4092
▁마음대로	-11.4093
종합	-11.4094
▁부분이다	-11.4094
▁요금	-11.4095
▁열정	-11.4096
▁native	-11.4096
▁연간	-11.4098
일차	-11.4099
▁식품	-11.4099
▁고리	-11.4099
▁클릭	-11.41
▁아바타	-11.4101
▁영화의	-11.4101
▁Toronto	-11.4102
▁executive	-11.4103
▁tax	-11.4106
RI	-11.4108
▁갇혀	-11.4108
▁Business	-11.4108
경기에	-11.4108
▁몫	-11.4109
▁z	-11.411
▁구멍	-11.4111
번이나	-11.4112
▁1907	-11.4113
▁GO	-11.4113
▁소련군	-11.4114
▁향후	-11.4116
▁episodes	-11.4116
들끼리	-11.4118
▁금액	-11.4119
있었다	-11.412
▁불어	-11.4121
▁actress	-11.4121
▁지키	-11.4122
왔	-11.4122
▁실패한	-11.4123
med	-11.4126
▁포획	-11.4127
▁넣었다	-11.4129
멀	-11.4129
▁담배	-11.413
▁61	-11.413
▁난입	-11.4131
Co	-11.4131
mas	-11.4131
▁신발	-11.4133
▁압	-11.4134
▁섀도우	-11.4135
끔	-11.4138
▁맞았다	-11.4138
▁increase	-11.4139
▁성적은	-11.4141
▁살던	-11.4143
▁ball	-11.4144
▁표현을	-11.4145
▁조건으로	-11.4146
▁렌즈	-11.4146
사이트	-11.4146
▁62	-11.4147
▁존재하며	-11.4147
▁전적	-11.4148
▁Corporation	-11.4149
▁설명이	-11.4149
▁잉	-11.4149
lay	-11.415
▁시키	-11.4152
▁이곳	-11.4152
희의	-11.4153
▁싸운다	-11.4154
▁어지간한	-11.4155
▁Both	-11.4156
▁정상적으로	-11.4157
ute	-11.4158
方	-11.4158
▁혼인	-11.4159
크리	-11.416
▁썬더	-11.416
▁direction	-11.4161
▁girl	-11.4161
▁동계	-11.4162
하트	-11.4162
▁portion	-11.4162
▁돔	-11.4163
▁드물게	-11.4164
▁meeting	-11.4164
▁않으므로	-11.4165
▁적당한	-11.4165
던가	-11.4165
▁cities	-11.4165
▁era	-11.4165
▁버스터	-11.4166
▁설이	-11.4166
▁여러번	-11.4166
▁인지도가	-11.4168
▁멀	-11.4168
▁들어가지	-11.417
▁보상으로	-11.417
エ	-11.4171
미는	-11.4171
▁삼성전자	-11.4172
▁임기	-11.4172
▁finally	-11.4172
층의	-11.4173
▁요코	-11.4175
인다	-11.4177
자들의	-11.4178
▁역습	-11.4178
잇	-11.418
▁turned	-11.418
▁아프	-11.4181
▁희귀	-11.4181
우와	-11.4182
ration	-11.4185
▁추측이	-11.4186
▁Historic	-11.4186
▁Area	-11.4187
▁거라는	-11.4187
▁유기	-11.4187
dan	-11.4187
▁failed	-11.4188
▁단백질	-11.4188
▁channel	-11.4189
▁바이에른	-11.419
코를	-11.419
▁승무원	-11.4191
▁80%	-11.4192
▁Islands	-11.4194
▁범죄자	-11.4194
박물관	-11.4194
▁추종자	-11.4194
00,000	-11.4195
비의	-11.4196
din	-11.4197
▁attempt	-11.42
▁티켓	-11.42
▁Cro	-11.42
실을	-11.4201
▁폐기	-11.4202
▁연출이	-11.4203
▁어른	-11.4203
▁곳곳에	-11.4203
▁지나가는	-11.4203
마크	-11.4203
▁본작의	-11.4204
판의	-11.4204
▁officers	-11.4204
cur	-11.4205
▁엘리자베스	-11.4205
널	-11.4206
▁보여주지	-11.4206
▁어머니의	-11.4207
▁Massachusetts	-11.4208
▁산맥	-11.4211
▁Supreme	-11.4212
세와	-11.4213
▁김기	-11.4214
통을	-11.4215
된다는	-11.4215
▁창고	-11.4217
▁Now	-11.4217
▁근접전	-11.4218
▁어드벤처	-11.4218
▁역사적	-11.4218
피아	-11.4218
▁엑	-11.4218
▁고증	-11.4222
▁극도로	-11.4222
▁동급	-11.4222
라운드에서	-11.4223
▁축구선수	-11.4224
▁Story	-11.4224
▁에디션	-11.4225
ston	-11.4225
▁Camp	-11.4226
▁석유	-11.4228
천사	-11.4229
▁묘사된다	-11.4229
▁집어넣	-11.423
▁기갑	-11.423
▁설치된	-11.4232
shire	-11.4232
▁웃는	-11.4232
▁마물	-11.4232
▁일하는	-11.4232
랍	-11.4232
(7	-11.4233
ars	-11.4234
▁학교를	-11.4235
▁골렘	-11.4235
▁대사는	-11.4236
▁이기고	-11.4237
▁좌석	-11.4237
▁승부를	-11.424
▁벌어지는	-11.424
▁Fox	-11.424
▁주면	-11.424
▁Democratic	-11.4241
▁쓰던	-11.4241
▁요리를	-11.4242
▁누구나	-11.4242
▁충청북도	-11.4243
▁공간이	-11.4244
▁비극	-11.4245
▁유럽의	-11.4246
텐데	-11.4247
이었을	-11.4248
▁면모를	-11.425
밭	-11.4251
회복	-11.4251
사실	-11.4251
▁join	-11.4251
▁02	-11.4252
▁1911	-11.4252
▁나르	-11.4254
ika	-11.4255
cul	-11.4255
▁blood	-11.4255
▁지낸	-11.4256
▁(6	-11.4258
▁크라	-11.4258
▁가까워	-11.4259
▁유효	-11.4259
▁손쉽게	-11.4259
▁상담	-11.426
그러	-11.426
▁곁에	-11.426
▁휘하	-11.4261
▁상태의	-11.4262
령을	-11.4263
▁오고	-11.4263
▁상대방	-11.4265
rich	-11.4266
▁드문	-11.4267
▁told	-11.4267
▁Gra	-11.4268
▁Regiment	-11.4275
▁여학생	-11.4276
▁없었다고	-11.4277
▁Sc	-11.4277
▁스펠	-11.4277
▁특정한	-11.4278
▁latter	-11.4278
▁탄핵	-11.4279
밴드	-11.428
▁시합	-11.4281
나카	-11.4281
ı	-11.4281
▁67	-11.4281
▁대회에	-11.4282
▁하마	-11.4282
▁전동차	-11.4283
▁정차	-11.4283
▁닫	-11.4283
▁스즈키	-11.4283
▁폴리	-11.4284
엔진	-11.4284
▁손해	-11.4284
▁광물	-11.4285
▁추측된다	-11.4286
▁사인	-11.4287
▁칼라	-11.4287
▁점과	-11.4288
더라	-11.4288
▁chart	-11.4289
편이	-11.429
▁릭	-11.429
▁인공지능	-11.4291
▁Stephen	-11.4291
연구원	-11.4292
▁variety	-11.4294
ira	-11.4294
▁자칭	-11.4296
▁그렇다면	-11.4297
▁+2	-11.4297
났	-11.4298
▁이루어	-11.4299
타니	-11.4301
▁보스전	-11.4302
▁시골	-11.4303
▁갱신	-11.4304
▁defeat	-11.4305
▁기적	-11.4305
▁들어가기	-11.4305
▁Four	-11.4306
▁편으로	-11.4306
▁Reg	-11.4306
▁강자	-11.4307
▁Real	-11.4308
▁operation	-11.4308
▁말과	-11.4308
▁요소를	-11.4309
▁fish	-11.4311
▁밝혀진다	-11.4311
RA	-11.4313
자료	-11.4313
▁부적	-11.4313
카스	-11.4313
▁Ken	-11.4313
▁해소	-11.4314
▁질문을	-11.4316
▁쫓아	-11.4316
▁질량	-11.4316
▁여포	-11.4316
▁시키는	-11.4316
▁보스턴	-11.4317
▁끔찍한	-11.4318
花	-11.432
아라	-11.4321
Con	-11.4327
▁Ri	-11.4327
(15	-11.433
▁근거리	-11.4332
▁승자	-11.4333
흔	-11.4333
스토	-11.4333
▁Review	-11.4333
▁불의	-11.4336
▁김재	-11.4336
▁Sky	-11.4338
각을	-11.434
민의	-11.434
▁방위	-11.4342
▁내기	-11.4343
▁찌	-11.4343
▁아이들을	-11.4344
▁존재로	-11.4345
▁코스튬	-11.4345
▁코파	-11.4346
일지도	-11.4348
▁도시의	-11.4349
▁Castle	-11.4351
기에는	-11.4354
▁주인공과	-11.4355
▁젖	-11.4355
▁엄연히	-11.4355
▁carried	-11.4355
▁페리	-11.4355
▁유사하다	-11.4356
가드	-11.4356
▁왕복	-11.4357
▁가방	-11.4357
▁시점에서는	-11.4358
▁personnel	-11.4358
전은	-11.4359
▁발매한	-11.4359
▁오타	-11.4359
ust	-11.4359
▁입었다	-11.436
ded	-11.4363
▁bank	-11.4363
▁쓰이지	-11.4365
▁signal	-11.4365
▁올라오	-11.4365
▁받기도	-11.4366
▁plays	-11.4366
▁소집	-11.4366
▁원피스	-11.4367
재단	-11.4368
▁특징을	-11.4369
▁ch	-11.4369
▁Pakistan	-11.437
α	-11.4371
▁09	-11.4372
tt	-11.4373
▁멤버들의	-11.4373
▁supported	-11.4373
▁단어를	-11.4375
▁뿌려	-11.4375
▁남는	-11.4376
▁모습이다	-11.4376
▁82	-11.4376
▁투쟁	-11.4377
▁say	-11.4378
▁Technology	-11.4378
▁경찰이	-11.4378
eu	-11.4378
되어야	-11.438
ú	-11.4381
▁지향	-11.4382
무스	-11.4382
▁굽	-11.4386
▁기수	-11.4387
龍	-11.4387
시기	-11.4388
일반	-11.4388
▁싸우게	-11.4389
▁나왔을	-11.439
▁타이밍에	-11.4391
▁어그로를	-11.4393
▁가능하게	-11.4393
▁이루는	-11.4393
▁let	-11.4394
▁enough	-11.4394
▁완벽	-11.4394
▁어딘가	-11.4395
▁nearby	-11.4395
▁둠	-11.4396
▁추후	-11.4396
▁Prize	-11.4397
▁뜬	-11.44
~10	-11.4402
▁있기는	-11.4404
▁생각했다	-11.4404
버리	-11.4405
▁아마추어	-11.4405
▁1.0	-11.4407
▁종결	-11.4407
학년도	-11.4408
fr	-11.4409
▁만주	-11.4409
▁약자	-11.4409
▁변이	-11.4409
토르	-11.441
▁빙의	-11.4412
▁포함하여	-11.4412
▁대수	-11.4413
▁주어	-11.4414
LO	-11.4414
▁Ve	-11.4414
▁누군가가	-11.4415
▁액체	-11.4416
▁적게	-11.4417
lor	-11.4417
▁provides	-11.4417
두고	-11.4419
아리	-11.442
▁starting	-11.4421
▁Social	-11.4422
▁이끌	-11.4422
原	-11.4423
▁양의	-11.4423
▁그랬	-11.4423
▁잘라	-11.4424
▁van	-11.4424
▁매드	-11.4425
▁패배한	-11.4427
▁1913	-11.4427
불가	-11.4427
▁때와	-11.4428
▁유격수	-11.4428
▁순간이동	-11.443
!?	-11.4431
▁중국에서	-11.4431
▁우린	-11.4432
윙	-11.4435
▁Korean	-11.4435
▁잃어버린	-11.4436
▁stories	-11.4436
▁Trans	-11.4438
Mo	-11.4439
オ	-11.444
án	-11.4441
▁싶다는	-11.4442
▁포장	-11.4444
▁법적	-11.4445
▁사용해서	-11.4445
▁압축	-11.4446
▁올해	-11.4446
▁houses	-11.4449
▁쿨타임이	-11.4449
▁시체를	-11.445
▁1915	-11.445
▁오염	-11.445
ID	-11.445
▁커스텀	-11.4452
▁후반기	-11.4452
▁유용하다	-11.4452
▁descent	-11.4453
▁수석	-11.4454
녕	-11.4454
▁지붕	-11.4455
▁CP	-11.4456
▁놀라운	-11.4457
▁잉여	-11.4458
iya	-11.446
▁시라	-11.4461
▁테크	-11.4462
▁pass	-11.4462
버렸고	-11.4462
▁자치	-11.4463
▁Mer	-11.4463
▁나이는	-11.4464
▁움직일	-11.4465
장애	-11.4465
▁margin	-11.4466
▁individuals	-11.4466
▁code	-11.4466
해주고	-11.4467
▁죄를	-11.4467
▁시공	-11.4468
▁residents	-11.4468
▁슬픔	-11.4468
▁Point	-11.447
▁국내에서	-11.447
▁탐색	-11.4472
▁아오	-11.4474
▁중후반	-11.4474
ew	-11.4475
▁출신이다	-11.4477
즈는	-11.4478
▁팀에서	-11.4478
연패	-11.4479
▁테오	-11.4481
▁힘입어	-11.4484
▁가디언	-11.4485
▁키우	-11.4485
▁표절	-11.4488
oh	-11.4488
▁Bel	-11.4489
인데다가	-11.449
▁로이	-11.449
▁(2015	-11.449
oli	-11.4491
▁Class	-11.4491
ave	-11.4492
▁Pen	-11.4493
▁지팡이	-11.4494
▁멋대로	-11.4495
▁만나고	-11.4496
▁마을에	-11.4496
▁묻는다	-11.4498
▁결혼을	-11.45
▁1909	-11.4501
▁맹세	-11.4501
▁원곡	-11.4502
十	-11.4502
▁Santa	-11.4502
▁용이	-11.4502
▁조합을	-11.4503
▁Beach	-11.4503
▁Hospital	-11.4504
▁설명을	-11.4505
▁변명	-11.4505
▁탄압	-11.4505
프라	-11.4506
연이	-11.4506
▁재등장	-11.4507
▁{	-11.4507
▁펠	-11.4507
▁심해	-11.4508
▁노르웨이	-11.4508
물로	-11.4509
▁안양	-11.4509
▁완공	-11.4509
▁노스	-11.451
▁개를	-11.4511
실에서	-11.4511
▁남동생	-11.4512
せ	-11.4513
▁communities	-11.4514
▁생각은	-11.4514
▁Son	-11.4515
▁임팩트	-11.4516
대학원	-11.4518
▁CA	-11.4518
▁프라임	-11.4519
▁거기다가	-11.4519
▁Mount	-11.4519
인물	-11.4522
▁08	-11.4522
▁1905	-11.4522
▁추세	-11.4522
▁가리	-11.4524
▁table	-11.4524
▁애매	-11.4524
▁Rome	-11.4525
▁Ag	-11.4525
▁병력이	-11.4525
▁뜨는	-11.4525
▁시간의	-11.4526
▁변태	-11.4526
▁whole	-11.4527
▁Hong	-11.4529
▁줘	-11.4529
軍	-11.453
▁광기	-11.453
▁집계	-11.4532
▁초기화	-11.4532
▁원시	-11.4532
▁gun	-11.4532
▁고양	-11.4533
▁났	-11.4533
▁되어야	-11.4533
▁숫자가	-11.4534
▁조국	-11.4535
▁전체의	-11.4535
▁체중	-11.4536
▁분야에서	-11.4538
여성	-11.4541
lip	-11.4541
▁않을까	-11.4541
▁languages	-11.4542
▁여겨	-11.4544
▁레벨업	-11.4544
als	-11.4546
자동차	-11.4547
▁전작과	-11.4547
BC	-11.4548
▁technology	-11.4549
동맹	-11.4549
▁vote	-11.455
▁업무를	-11.455
▁라이언	-11.455
log	-11.455
bra	-11.4551
히는	-11.4551
▁켈	-11.4552
마사	-11.4552
星	-11.4553
전으로	-11.4553
▁records	-11.4554
루트	-11.4554
▁조합이	-11.4557
▁생각하지	-11.4557
▁extended	-11.4558
▁굿	-11.4558
heim	-11.4558
류의	-11.4559
▁격려	-11.4559
▁루마니아	-11.4559
▁비난을	-11.456
▁촉수	-11.4561
▁양손	-11.4563
▁창립	-11.4563
▁선발로	-11.4564
▁전담	-11.4564
▁바이오	-11.4565
▁중형	-11.4567
空	-11.4569
▁배경이	-11.457
작품	-11.457
▁파생	-11.4571
▁(2012	-11.4571
구리	-11.4572
왔던	-11.4572
선으로	-11.4573
나미	-11.4573
▁틀어	-11.4574
슬리	-11.4574
▁이르	-11.4574
▁캐릭	-11.4575
water	-11.4575
▁아군의	-11.4575
▁비판이	-11.4575
▁professor	-11.4576
▁붙인	-11.4576
▁이해가	-11.4577
▁하수인	-11.4578
▁이펙트	-11.4578
▁81	-11.4579
홈	-11.458
▁잡으면	-11.4582
▁총장	-11.4583
▁코르	-11.4584
▁바깥	-11.4584
▁Cambridge	-11.4585
▁Die	-11.4585
▁툴	-11.4586
▁j	-11.4587
▁Os	-11.4587
sur	-11.4588
▁가치를	-11.4589
▁Ash	-11.4589
마나	-11.4589
▁최저	-11.459
▁변동	-11.4591
onic	-11.4592
▁앉	-11.4594
▁consists	-11.4595
get	-11.4595
▁2005,	-11.4595
▁준수	-11.4595
▁취재	-11.4596
▁하급	-11.4596
▁챔피언스	-11.4598
레나	-11.4598
▁각본	-11.4598
▁>	-11.4601
▁county	-11.4601
▁구사	-11.4603
▁타이거즈	-11.4606
▁메카닉	-11.4607
▁왕족	-11.4608
▁수여	-11.4608
▁구체	-11.4609
▁nature	-11.4609
▁혼합	-11.4609
▁모양이	-11.461
▁연사	-11.461
▁참여하였다	-11.461
▁Sta	-11.4614
▁bus	-11.4615
박사	-11.4616
▁불리한	-11.4616
운영	-11.4616
▁일곱	-11.4616
▁Kim	-11.4617
義	-11.4617
▁어려울	-11.4619
▁(2013	-11.462
▁대위	-11.4621
▁problems	-11.4621
▁자유한국당	-11.4622
▁주체	-11.4622
▁않았	-11.4624
▁체코	-11.4624
▁외곽	-11.4625
▁떨어지고	-11.4626
▁Golden	-11.4626
▁parents	-11.4627
▁변한	-11.4627
▁featuring	-11.4627
하곤	-11.4628
▁stone	-11.4629
▁모인	-11.463
▁돌연변이	-11.4632
요소	-11.4632
동으로	-11.4633
▁SE	-11.4634
▁데미지는	-11.4636
▁뜨거운	-11.4638
▁명칭을	-11.4638
▁보드	-11.4639
▁Duke	-11.4639
▁죽으면	-11.464
▁수직	-11.464
▁유망주	-11.464
무대	-11.464
▁약하다	-11.4641
女	-11.4641
▁남게	-11.4642
▁facilities	-11.4642
▁개봉한	-11.4642
▁무인	-11.4643
▁되도록	-11.4644
oth	-11.4644
ora	-11.4644
▁낭	-11.4645
▁주장한다	-11.4646
▁멤버가	-11.4647
령이	-11.4647
▁대통령은	-11.4647
▁경제적	-11.4648
▁교차	-11.4649
▁극단적인	-11.4649
▁주석	-11.465
シ	-11.465
▁friends	-11.4651
▁다시금	-11.4651
미디어	-11.4653
맨의	-11.4653
▁스킬의	-11.4656
Pro	-11.4656
▁안심	-11.4656
▁포인트를	-11.4658
▁academic	-11.4658
▁recent	-11.4658
▁낮아	-11.4659
▁경기에서는	-11.4659
▁런	-11.4659
▁아닐까	-11.466
ther	-11.4663
▁말레이시아	-11.4663
거라고	-11.4664
▁노력을	-11.4664
▁-10	-11.4665
▁month	-11.4666
▁presented	-11.4666
졌을	-11.4667
▁에이지	-11.4668
▁통틀어	-11.4669
▁났다	-11.4669
▁rule	-11.4669
▁신학	-11.4669
▁분노를	-11.467
▁무난하게	-11.467
▁Just	-11.467
▁노선은	-11.467
사상	-11.467
▁밀리는	-11.4672
▁(2011	-11.4672
▁브라이언	-11.4674
이냐	-11.4674
amp	-11.4674
▁유지하는	-11.4675
▁저자	-11.4675
▁러시	-11.4675
▁재미있는	-11.4678
▁interview	-11.4678
▁빌보드	-11.4678
▁상태다	-11.4681
▁IT	-11.4681
▁돌아갈	-11.4681
▁부가	-11.4682
▁것들이	-11.4682
▁Max	-11.4682
▁없었기	-11.4683
▁07	-11.4684
▁3~4	-11.4684
▁좌측	-11.4684
▁코믹	-11.4684
▁여객철도	-11.4685
▁진행했다	-11.4686
▁전락	-11.4687
▁직전까지	-11.4688
▁69	-11.4688
기인	-11.4688
▁후임	-11.4689
▁구형	-11.469
▁우회	-11.469
▁covered	-11.4691
▁펼쳐	-11.4691
▁나이로	-11.4695
▁등지에서	-11.4695
▁green	-11.4695
테니	-11.4696
▁합작	-11.4696
▁콘솔	-11.4697
▁데빌	-11.4698
▁구간을	-11.4698
▁공중에서	-11.4699
▁치료를	-11.4699
▁pair	-11.47
▁한나라당	-11.47
바리	-11.47
맨이	-11.4702
▁래퍼	-11.4702
▁overall	-11.4705
▁흑역사	-11.4705
▁인게임	-11.4706
▁Notable	-11.4707
▁Also	-11.4707
aki	-11.4707
▁(2014	-11.4708
ば	-11.4709
화에선	-11.471
▁해치	-11.471
state	-11.4711
▁수수께끼	-11.4712
센트	-11.4712
▁IP	-11.4713
▁녀석이	-11.4714
▁1916	-11.4715
▁터져	-11.4716
▁내놓	-11.4716
▁조사를	-11.4716
우를	-11.4717
▁전제	-11.4717
▁서기	-11.4718
조각	-11.4718
원과	-11.4718
▁비가	-11.4719
▁시선	-11.472
hy	-11.472
사용	-11.4721
▁policy	-11.4721
배로	-11.4722
경을	-11.4723
▁카츠	-11.4723
▁한번도	-11.4723
▁토키	-11.4724
▁camp	-11.4726
▁und	-11.4726
board	-11.4727
▁방식은	-11.4728
▁이루고	-11.473
▁크로아티아	-11.4731
▁갤	-11.4732
▁적극	-11.4732
▁앞선	-11.4734
▁묶	-11.4735
ille	-11.4736
숲	-11.4736
에다가	-11.4737
shi	-11.4737
▁천장	-11.4737
▁일행과	-11.4738
▁이른다	-11.4739
▁브로	-11.4739
▁유아	-11.4739
석의	-11.474
▁ro	-11.474
▁운송	-11.4741
▁secondary	-11.4742
▁도심	-11.4742
▁과정이	-11.4743
▁벌어졌다	-11.4744
▁선포	-11.4744
▁Gr	-11.4745
▁제왕	-11.4745
▁raised	-11.4747
▁역할이	-11.4747
그리고	-11.4748
▁즐길	-11.4748
▁무효	-11.4749
▁관점	-11.475
▁학대	-11.4752
▁돌리	-11.4752
▁모드로	-11.4752
판정	-11.4753
▁마을의	-11.4753
▁내외	-11.4754
▁겐지	-11.4755
▁들어올	-11.4755
▁구동	-11.4758
▁열매	-11.4759
tom	-11.4761
▁성격으로	-11.4761
▁진행한다	-11.4762
▁일기	-11.4763
▁높여	-11.4763
▁트윈스	-11.4764
▁수상한	-11.4764
▁라이너	-11.4765
카는	-11.4765
▁탄환	-11.4765
▁학자	-11.4765
▁specific	-11.4765
▁공격속도	-11.4766
▁Prime	-11.4769
▁태워	-11.4769
ost	-11.4771
+2	-11.4771
▁us	-11.4773
▁Federal	-11.4774
▁CEO	-11.4775
OC	-11.4777
▁나비	-11.4778
▁녀석들	-11.4778
▁협조	-11.4779
형태	-11.4779
▁하나하나	-11.478
▁조언을	-11.478
▁사람이다	-11.478
▁상대하기	-11.4782
▁고등학생	-11.4782
▁집회	-11.4782
AN	-11.4783
▁비용이	-11.4783
▁편하게	-11.4784
치와	-11.4785
▁아직까지	-11.4785
룩	-11.4785
▁버섯	-11.4785
▁중장	-11.4786
▁ships	-11.4786
▁와인	-11.4786
헨	-11.4787
▁sign	-11.4788
Do	-11.4789
▁유우키	-11.4792
▁미국에	-11.4794
バ	-11.4794
▁꺾고	-11.4795
▁78	-11.4795
▁적절히	-11.4796
▁break	-11.4796
한데	-11.4797
실에	-11.4797
실이	-11.4798
▁아오이	-11.4798
▁다이아	-11.4799
증을	-11.48
▁떨어질	-11.48
▁발생할	-11.4801
▁턴에	-11.4801
▁그릇	-11.4801
약을	-11.4802
▁얻어맞	-11.4804
▁에도	-11.4804
▁필름	-11.4804
sol	-11.4804
▁낭비	-11.4806
▁서적	-11.4808
지면	-11.4809
▁전생	-11.4809
▁디자인을	-11.4809
▁참사	-11.4811
▁유니버스	-11.4812
IP	-11.4813
▁내부의	-11.4813
▁발라	-11.4814
▁GM	-11.4815
▁때에도	-11.4815
▁순서	-11.4816
아시아	-11.4817
브로	-11.4818
▁설명은	-11.4818
▁공간을	-11.4819
닉스	-11.4819
▁이닝	-11.482
▁국어	-11.4821
▁침몰	-11.4822
▁par	-11.4823
혹	-11.4825
▁통째로	-11.4825
▁김씨	-11.4825
운수	-11.4825
▁선수단	-11.4827
▁고려하면	-11.4828
▁prevent	-11.4829
▁히나	-11.483
▁꽉	-11.483
т	-11.483
▁나미	-11.483
dale	-11.4831
▁성분	-11.4831
▁Brazil	-11.4831
tus	-11.4832
gs	-11.4832
CS	-11.4834
▁게임으로	-11.4834
▁여부	-11.4835
▁로우	-11.4836
mark	-11.4836
놨다	-11.4837
▁달리는	-11.4837
▁진지	-11.4837
▁전반기	-11.4838
▁(2016	-11.4839
▁받아야	-11.4839
▁기호	-11.4842
▁scene	-11.4842
▁인사를	-11.4842
▁세리에	-11.4842
▁elements	-11.4843
▁받았다고	-11.4843
피해	-11.4844
▁선장	-11.4844
▁메시	-11.4845
win	-11.4845
종류	-11.4845
▁nearly	-11.4845
능력을	-11.4846
▁뜻은	-11.4846
▁드래곤볼	-11.485
ret	-11.485
▁conditions	-11.485
크를	-11.4851
모양	-11.4852
서비스	-11.4852
▁도트	-11.4852
행동	-11.4853
▁think	-11.4855
▁아담	-11.4855
▁지속적인	-11.4856
▁인쇄	-11.4858
▁시나	-11.4858
▁특급	-11.4858
镇	-11.4859
▁묻는	-11.4861
▁Cur	-11.4861
▁대가	-11.4862
▁이벤트에서	-11.4862
知	-11.4862
▁급격히	-11.4862
▁빠지는	-11.4862
▁학생들은	-11.4864
▁강림	-11.4864
▁퍼스트	-11.4865
▁유엔	-11.4865
기계	-11.4867
▁그레이트	-11.4868
▁Pop	-11.4868
▁내용이다	-11.4869
▁인상을	-11.487
▁이루	-11.4872
▁협정	-11.4873
▁벌어	-11.4873
▁약속을	-11.4874
CO	-11.4874
▁감자	-11.4874
▁여론이	-11.4876
키는	-11.4877
▁자원을	-11.4879
▁배운	-11.4881
▁황제가	-11.4881
▁종전	-11.4881
큰	-11.4882
론이	-11.4882
▁잔류	-11.4882
▁coast	-11.4883
▁여유	-11.4883
(8	-11.4883
ado	-11.4885
-14	-11.4886
▁무서워	-11.4886
▁최악	-11.4886
▁융	-11.4887
▁마찰	-11.4887
sis	-11.4888
▁지혜	-11.4888
▁이후로도	-11.4889
▁inside	-11.4894
훈이	-11.4895
/10	-11.4895
read	-11.4896
▁트리거	-11.4896
ets	-11.4896
▁사무라이	-11.4896
▁캘리포니아	-11.4897
▁Ze	-11.4897
▁upper	-11.4898
▁색이	-11.4899
▁겉	-11.4899
▁스텝	-11.49
겼다	-11.49
▁뽑는	-11.49
cia	-11.4902
냈고	-11.4903
▁인스타그램	-11.4903
▁맞춰서	-11.4904
▁360	-11.4905
▁막부	-11.4907
▁슈퍼맨	-11.4908
▁봤	-11.4908
현은	-11.491
▁Dark	-11.491
▁여성이	-11.4912
app	-11.4913
▁차가	-11.4915
▁리즈	-11.4915
▁Swiss	-11.4915
▁composed	-11.4916
▁플로	-11.4917
회관	-11.4917
우치	-11.4917
▁무난한	-11.4917
▁시즌이	-11.4919
▁라이온즈	-11.492
sc	-11.4921
▁소요	-11.4921
▁organizations	-11.4921
▁1906	-11.4922
▁proposed	-11.4924
▁ST	-11.4925
▁Ham	-11.4925
▁despite	-11.4926
▁전통적인	-11.4927
▁06	-11.4927
▁구슬	-11.4928
부터가	-11.4929
▁원작과	-11.4932
▁오니	-11.4933
석은	-11.4935
▁appear	-11.4935
ison	-11.4936
▁혹	-11.4936
▁(2009	-11.4936
▁워크래프트	-11.4937
▁의지를	-11.4939
▁마산	-11.4942
▁보낸다	-11.4942
결과	-11.4942
▁기다리	-11.4942
▁Comp	-11.4943
▁성공적으로	-11.4943
▁forward	-11.4944
▁다니엘	-11.4944
▁plans	-11.4945
▁용기	-11.4945
▁경찰서	-11.4945
▁착륙	-11.4947
▁박정	-11.4947
▁발키리	-11.4948
▁뽑을	-11.495
▁김승	-11.495
▁필요로	-11.4951
▁충분	-11.4951
▁Type	-11.4951
▁선수들을	-11.4952
쿠스	-11.4953
.11.	-11.4955
시민	-11.4956
▁EU	-11.4957
레인	-11.4957
▁않다고	-11.4958
모어	-11.4958
▁2011,	-11.4958
▁하루에	-11.4959
▁lives	-11.4959
▁시작하면	-11.496
▁덩치	-11.4962
▁과거를	-11.4962
▁Tim	-11.4963
▁모음	-11.4964
▁방심	-11.4965
중대	-11.4965
▁불리며	-11.4966
클라	-11.4966
▁시작하고	-11.4968
▁LP	-11.4968
▁couple	-11.4969
elli	-11.4969
▁세우	-11.4969
구는	-11.4969
▁타운	-11.4969
▁활동했다	-11.497
work	-11.497
▁할때	-11.497
인으로	-11.4971
▁71	-11.4971
▁크레딧	-11.4972
▁봇	-11.4972
▁험	-11.4973
▁날씨	-11.4973
▁랜드	-11.4973
▁고가	-11.4974
▁영향력	-11.4975
▁(2017	-11.4977
▁쇠	-11.4978
▁시리즈가	-11.4978
렸던	-11.4978
▁판매량	-11.4979
▁전격	-11.4979
Ra	-11.498
dle	-11.4982
った	-11.4982
▁고로	-11.4984
世	-11.4984
▁이름도	-11.4986
▁discovered	-11.4987
學	-11.4987
루를	-11.4987
▁94	-11.4988
▁서명	-11.4988
▁그렇기	-11.4989
▁사키	-11.4989
▁comes	-11.4989
체의	-11.4989
▁feel	-11.499
▁빨	-11.499
▁감싸	-11.4991
▁짧게	-11.4992
산동	-11.4993
▁탓인지	-11.4993
레이드	-11.4993
野	-11.4995
▁섞어	-11.4995
▁그후	-11.4997
▁soldiers	-11.4999
▁세르	-11.5
▁자의	-11.5
하듯	-11.5001
스에	-11.5002
▁던	-11.5003
down	-11.5004
▁벌어지	-11.5004
▁잎	-11.5005
▁programming	-11.5005
띠	-11.5006
▁악마의	-11.5006
▁휠	-11.5007
▁변한다	-11.5008
즘	-11.5009
▁멘트	-11.501
▁아이들이	-11.5011
원에	-11.5012
ics	-11.5013
▁토미	-11.5014
▁늘어났다	-11.5014
▁cell	-11.5014
▁묘하게	-11.5014
▁나누	-11.5015
▁split	-11.5015
실로	-11.5017
▁먹지	-11.5018
넣	-11.5018
▁꺼	-11.5018
멤버	-11.5019
▁제목은	-11.5019
화와	-11.502
▁뛰어나	-11.5022
▁울트라맨	-11.5023
▁싫어한다	-11.5026
▁동전	-11.5026
안의	-11.503
▁진동	-11.503
▁초록색	-11.5031
▁연결되어	-11.5031
▁믿지	-11.5031
ico	-11.5033
aj	-11.5033
▁wanted	-11.5033
▁2006.	-11.5034
▁AK	-11.5035
▁distance	-11.5036
bin	-11.5036
▁번의	-11.5037
▁올리	-11.5037
▁목적은	-11.5039
▁쏠	-11.5039
Se	-11.5039
▁드릴	-11.504
▁renamed	-11.504
투표	-11.504
자유	-11.504
▁정사	-11.504
▁소방	-11.5041
까지의	-11.5042
▁86	-11.5042
▁primarily	-11.5043
혁명	-11.5043
에너지	-11.5043
▁했기	-11.5044
▁목표를	-11.5046
▁중국인	-11.5047
캣	-11.5048
▁램	-11.5048
파티	-11.5049
체로	-11.5049
▁내에서는	-11.5049
슈타인	-11.5051
상에서	-11.5051
▁missing	-11.5051
▁섭취	-11.5053
ima	-11.5054
vel	-11.5055
▁기묘한	-11.5055
▁절벽	-11.5056
들처럼	-11.5058
▁데이트	-11.5058
▁fi	-11.5058
페이지	-11.5059
▁만난다	-11.5061
▁오른손	-11.5064
▁교도소	-11.5064
졌	-11.5064
▁개척	-11.5065
▁2010,	-11.5065
▁(2010	-11.5066
▁directly	-11.5067
배가	-11.5067
월호	-11.5067
▁쳤다	-11.5069
▁travel	-11.5069
▁서방	-11.507
▁작품에서	-11.5071
▁시에는	-11.5072
▁강점	-11.5073
▁부실	-11.5073
▁버티	-11.5074
▁mainly	-11.5074
▁보이기	-11.5075
▁학생이	-11.5077
▁엄밀히	-11.5077
bus	-11.5079
▁그렇기에	-11.5079
▁단검	-11.5081
겠어	-11.5081
▁쏘아	-11.5081
▁newspaper	-11.5083
▁싸우고	-11.5083
▁Tor	-11.5084
▁트릭	-11.5084
▁여파로	-11.5086
▁진지하게	-11.5086
▁무대에	-11.5089
▁protect	-11.509
▁종영	-11.509
▁너희	-11.5091
▁두번	-11.5091
였기에	-11.5092
시간에	-11.5093
▁page	-11.5095
▁(15	-11.5097
▁census	-11.5098
▁김해	-11.5101
▁요인	-11.5102
▁남겨	-11.5103
부작	-11.5103
하세요	-11.5104
▁MAX	-11.5105
온다	-11.5106
▁조금이라도	-11.5106
▁되찾	-11.5106
▁실패하고	-11.5107
▁안녕	-11.5108
씨가	-11.5109
하겠다	-11.5109
▁팀으로	-11.5109
하느라	-11.5111
▁놈들	-11.5111
▁estate	-11.5111
▁던진	-11.5112
▁계절	-11.5112
▁content	-11.5114
▁levels	-11.5114
▁비슷	-11.5114
▁믿어	-11.5114
▁집필	-11.5117
▁선정되었다	-11.5117
보를	-11.5118
▁CM	-11.5118
▁앨런	-11.5119
▁Jackson	-11.5119
▁김수	-11.512
▁experience	-11.512
생물	-11.512
▁전체에	-11.5121
▁Community	-11.5122
▁스피릿	-11.5122
▁샤오	-11.5122
▁순간에	-11.5123
류를	-11.5124
▁내보내	-11.5124
▁대기업	-11.5124
▁측의	-11.5124
▁드리	-11.5124
▁가져오	-11.5126
▁포로	-11.5126
dis	-11.5126
▁인간과	-11.5127
법으로	-11.5127
▁몰고	-11.5128
▁시대를	-11.5129
▁이어졌다	-11.5129
▁지니	-11.513
▁키요	-11.5131
die	-11.5131
▁출간	-11.5132
▁거둔	-11.5132
▁미래의	-11.5133
AA	-11.5135
width	-11.5135
▁대왕	-11.5135
▁인해서	-11.5136
▁까다로운	-11.5136
느니	-11.5137
▁likely	-11.5137
▁입원	-11.5137
▁굉장한	-11.514
▁닮았다	-11.514
SI	-11.5141
▁미션을	-11.5141
▁선로	-11.5142
▁자료를	-11.5143
德	-11.5143
▁밀고	-11.5143
▁Cl	-11.5144
▁organ	-11.5145
제이	-11.5145
▁통하지	-11.5146
▁괜찮다	-11.5146
황제	-11.5146
▁solo	-11.5147
▁BJ	-11.5147
▁earned	-11.5148
▁초인	-11.5149
▁차량은	-11.515
▁포탈	-11.515
▁카일	-11.515
▁돌아온다	-11.5151
▁재즈	-11.5151
▁빠져나가	-11.5153
▁online	-11.5154
터널	-11.5154
모를	-11.5155
▁micro	-11.5156
▁루프	-11.5156
▁절차	-11.5156
▁진술	-11.5156
▁becomes	-11.5157
▁기뻐	-11.5158
▁코트	-11.5158
ori	-11.516
축구	-11.5161
▁지는	-11.5162
▁mountain	-11.5162
▁영웅들	-11.5162
▁피지컬	-11.5164
TO	-11.5164
▁출산	-11.5164
▁에그	-11.5165
▁ABC	-11.5165
rick	-11.5166
aries	-11.5166
▁용암	-11.5167
통일	-11.5167
▁광선	-11.5168
쿄	-11.5169
bal	-11.5169
▁복지	-11.5169
▁믿는	-11.5169
▁달라진다	-11.517
▁서열	-11.517
ull	-11.5171
▁미국은	-11.5172
▁곤충	-11.5172
편에서는	-11.5173
▁후미	-11.5174
▁가해자	-11.5175
▁물체	-11.5175
▁agreement	-11.5176
▁firm	-11.5176
▁모에	-11.5177
▁존재감	-11.5177
▁슈퍼로봇대전	-11.5178
▁방언	-11.5178
ド	-11.5179
▁발음이	-11.5179
▁su	-11.5179
▁작고	-11.5179
▁스폰서	-11.518
▁기소	-11.518
▁버틸	-11.5182
▁국기	-11.5182
▁보낼	-11.5182
▁청구	-11.5183
▁해병	-11.5184
▁니코	-11.5185
▁시점에	-11.5186
로이드	-11.5187
▁주연으로	-11.5187
ography	-11.5187
▁asked	-11.519
▁workers	-11.519
▁84	-11.5191
▁이럴	-11.5192
▁평일	-11.5193
▁키미	-11.5193
▁대박	-11.5193
▁맺어	-11.5193
친구	-11.5193
▁opera	-11.5195
▁발명	-11.5196
▁한국시리즈	-11.5196
▁부모님	-11.5196
미와	-11.5197
▁산타	-11.5198
▁늘려	-11.5198
ele	-11.5199
▁하므로	-11.5199
▁병행	-11.52
▁방송에	-11.5201
▁바지	-11.5201
▁인성	-11.5201
▁Mat	-11.5202
▁사이로	-11.5202
▁섬의	-11.5202
▁발리	-11.5203
It	-11.5203
▁법인	-11.5205
잎	-11.5205
터가	-11.5206
▁레이싱	-11.5207
▁성질	-11.5207
▁텐데	-11.5208
▁MA	-11.5208
▁영원	-11.5208
▁상기	-11.5209
『	-11.5209
▁세월호	-11.521
▁명성	-11.5213
▁고지	-11.5213
▁뭐가	-11.5213
▁붙었다	-11.5215
▁작위	-11.5215
▁numbers	-11.5216
hen	-11.5216
▁알기	-11.5216
바시	-11.5217
▁society	-11.5219
▁과일	-11.5222
▁친다	-11.5222
▁73	-11.5222
▁별명을	-11.5223
▁페어	-11.5223
▁구장	-11.5223
▁쉐	-11.5224
▁그해	-11.5224
▁위쪽	-11.5224
파괴	-11.5225
팟	-11.5225
▁할수	-11.5226
▁Ly	-11.5226
때마다	-11.5227
▁별의	-11.5228
▁그리핀	-11.5228
톨	-11.523
론의	-11.5232
▁김병	-11.5233
▁mass	-11.5235
ges	-11.5237
▁poet	-11.5237
▁동서	-11.5237
▁이명박	-11.5238
▁소식	-11.5238
요원	-11.5238
▁대단	-11.5238
▁줄어들	-11.5238
▁동아시아	-11.5239
▁engineer	-11.524
▁가져다	-11.5242
들에게는	-11.5242
▁Baby	-11.5242
ME	-11.5243
▁Gallery	-11.5244
▁얻지	-11.5244
Ha	-11.5244
하였던	-11.5244
▁스즈	-11.5245
▁원숭이	-11.5245
▁유치원	-11.5245
▁친척	-11.5245
▁충족	-11.5245
▁Pu	-11.5245
▁아니게	-11.5247
▁트윗	-11.5248
GA	-11.5248
▁경사	-11.5248
했	-11.525
▁애들	-11.5251
▁뻔한	-11.5252
▁pen	-11.5252
▁cars	-11.5252
▁주며	-11.5254
▁Fu	-11.5254
공업	-11.5256
▁도배	-11.5256
▁지오	-11.5258
▁initial	-11.5259
nic	-11.5262
▁환생	-11.5263
Bo	-11.5264
▁지방의	-11.5264
ough	-11.5265
▁province	-11.5265
時	-11.5265
▁언급했다	-11.5265
먼트	-11.5265
▁Asian	-11.5266
▁맨유	-11.5266
▁Fair	-11.5267
▁소음	-11.5267
▁안정적으로	-11.5268
▁포탄	-11.5269
▁우르	-11.527
크는	-11.5271
陽	-11.5272
pre	-11.5274
활동을	-11.5274
▁어시스트	-11.5274
▁약점이	-11.5276
▁이글스	-11.5276
▁반성	-11.5278
▁DPS	-11.5278
lie	-11.528
▁Cho	-11.5281
연장	-11.5281
▁이때는	-11.5282
스토리	-11.5282
▁이세계	-11.5282
▁리퍼	-11.5283
▁mentioned	-11.5283
린이	-11.5283
▁레인저	-11.5283
▁모욕	-11.5285
bs	-11.5285
▁의사를	-11.5285
▁팽	-11.5285
▁Fame	-11.5286
▁출혈	-11.5287
▁결승전에서	-11.5287
▁원자	-11.5287
▁뜨	-11.5288
▁제치고	-11.5289
▁몰랐	-11.5289
▁폭스	-11.5291
▁있다며	-11.5292
▁클리	-11.5292
▁졸업생	-11.5292
▁cultural	-11.5293
너스	-11.5293
▁이원	-11.5293
▁소생	-11.5293
▁붐	-11.5294
▁조회수	-11.5296
▁람	-11.5297
▁AR	-11.5299
▁conflict	-11.53
▁사용되고	-11.5301
ds	-11.5301
▁항공모함	-11.5302
▁태생	-11.5303
▁#2	-11.5304
▁라스트	-11.5305
▁비중	-11.5305
▁모양으로	-11.5306
터를	-11.5308
▁Poland	-11.5309
쵸	-11.5311
▁흐르는	-11.5312
▁실력은	-11.5313
str	-11.5314
▁연동	-11.5315
▁달려가	-11.5316
품을	-11.5317
▁높아서	-11.5317
▁패턴은	-11.5318
▁responsible	-11.5318
ien	-11.5318
▁씬	-11.5319
▁스태프	-11.5319
▁Hy	-11.5322
▁반대하는	-11.5322
▁하여금	-11.5323
HL	-11.5324
▁낮고	-11.5324
▁rugby	-11.5325
▁수상했다	-11.5326
▁주인이	-11.5327
▁돌아왔	-11.5328
▁오렌지	-11.5329
즈와	-11.5331
▁받았으며	-11.5332
영어	-11.5332
▁유언	-11.5332
▁Guard	-11.5334
▁능력도	-11.5334
▁프랭크	-11.5336
▁여자가	-11.5336
▁순서대로	-11.5337
▁im	-11.5338
▁알아내	-11.5338
▁비스트	-11.534
▁착한	-11.534
▁깨어나	-11.5344
ón	-11.5344
▁통로	-11.5344
▁가져온	-11.5346
fin	-11.5346
ches	-11.5347
▁스스로를	-11.5348
▁남한	-11.5348
▁Mas	-11.5348
쨩	-11.535
▁징	-11.535
▁바론	-11.5352
▁않자	-11.5353
▁Arthur	-11.5353
▁애정	-11.5353
▁활동이	-11.5353
클래스	-11.5354
킴	-11.5354
▁아츠	-11.5356
▁올라와	-11.5357
▁Brian	-11.5357
▁중순	-11.5358
문의	-11.5358
▁도장	-11.536
단에	-11.5362
▁floor	-11.5362
체제	-11.5362
▁로키	-11.5362
▁이름에	-11.5362
▁심각하게	-11.5363
–1	-11.5363
께서	-11.5363
▁kind	-11.5364
하늘	-11.5366
▁(10	-11.5368
▁인물은	-11.5368
▁탱킹	-11.5368
▁심하다	-11.5369
▁갚	-11.5369
▁존슨	-11.5369
▁가능할	-11.5369
▁전략을	-11.537
ock	-11.537
▁근처에서	-11.5372
▁베어스	-11.5372
▁써도	-11.5374
▁멘탈	-11.5375
▁상사	-11.5375
해버린다	-11.5376
▁풀리	-11.5377
!(	-11.5377
주었다	-11.5377
▁작품들	-11.5378
▁리사	-11.5379
▁원주민	-11.5379
▁활용할	-11.5379
▁자존심	-11.5382
츠카	-11.5382
▁오토바이	-11.5383
▁놈이	-11.5383
▁Side	-11.5383
san	-11.5383
▁오르는	-11.5384
stein	-11.5384
▁공허	-11.5386
▁Mus	-11.5386
▁한신	-11.5386
▁마야	-11.5386
▁코토	-11.5386
▁팬이	-11.5387
▁KO	-11.5387
▁이대로	-11.5388
▁Stadium	-11.5389
▁날카로운	-11.5389
▁테니	-11.5389
▁레슬링	-11.5389
▁mission	-11.5389
▁산소	-11.539
▁Carl	-11.5393
▁novels	-11.5393
▁노래가	-11.5394
▁같다는	-11.5394
나가는	-11.5396
lain	-11.5397
▁가능성	-11.5397
▁녹화	-11.5398
▁대결을	-11.5399
▁너와	-11.5399
ニ	-11.5399
▁Minnesota	-11.54
者	-11.54
kan	-11.54
▁얘기가	-11.5401
함으로	-11.5402
mes	-11.5403
족이	-11.5404
▁Cast	-11.5404
▁백신	-11.5404
▁별개의	-11.5405
▁letter	-11.5406
▁03	-11.5406
▁열렸다	-11.5406
▁시작해서	-11.5407
▁서류	-11.5407
▁이상하게	-11.5408
딱	-11.5408
▁스케일	-11.5409
이닝을	-11.5409
▁차고	-11.5409
▁자신들	-11.5409
▁Francis	-11.541
국장	-11.541
▁마도	-11.541
▁급행	-11.5411
▁테리	-11.5414
key	-11.5414
능력이	-11.5415
▁Dragon	-11.5415
바다	-11.5416
▁CR	-11.5417
▁되었다는	-11.5417
▁stadium	-11.5417
▁이기는	-11.5419
▁컸다	-11.5421
disambiguation	-11.5421
▁항공사	-11.5422
다른	-11.5423
▁초중반	-11.5424
▁whether	-11.5425
하가	-11.5425
▁엔드	-11.5425
▁모두를	-11.5426
▁regional	-11.5426
▁방법도	-11.5427
▁호러	-11.5428
▁bring	-11.543
▁89	-11.543
▁아리아	-11.5431
▁등장하고	-11.5431
▁92	-11.5432
▁남지	-11.5432
▁있음에도	-11.5433
▁이승만	-11.5433
▁실제로도	-11.5434
rm	-11.5434
▁플러스	-11.5435
삼거리	-11.5435
▁사람들과	-11.5436
▁$1	-11.5437
봄	-11.5437
▁몸으로	-11.5438
▁히메	-11.5438
...?	-11.544
팝	-11.5441
5%	-11.5442
▁Elizabeth	-11.5442
▁바라는	-11.5445
PD	-11.5446
으려고	-11.5447
▁구독자	-11.5448
연의	-11.5448
들에서	-11.5448
▁어렵게	-11.5448
▁effects	-11.5449
▁Wil	-11.5449
mat	-11.5449
▁탭	-11.5452
▁되니	-11.5453
▁업계	-11.5453
▁가챠	-11.5454
ult	-11.5455
▁탈취	-11.5455
▁Andrew	-11.5455
▁정발	-11.5459
▁뿐더러	-11.5459
▁Police	-11.5461
▁플레이스테이션	-11.5461
▁토대로	-11.5462
▁불량	-11.5463
rate	-11.5464
▁두었다	-11.5464
▁Earl	-11.5464
게이트	-11.5465
▁serve	-11.5465
▁메일	-11.5466
▁찾	-11.5466
밋	-11.5468
정은	-11.5468
▁이끌었다	-11.5468
▁sources	-11.5469
데미지	-11.5469
▁없어진	-11.5471
▁내성	-11.5472
▁어째	-11.5472
▁민첩	-11.5472
▁터보	-11.5472
▁발발	-11.5472
▁managed	-11.5473
▁Ali	-11.5473
▁장애인	-11.5474
▁조종사	-11.5474
▁미쳐	-11.5474
▁中	-11.5475
▁PV	-11.5475
avi	-11.5475
▁항해	-11.5478
▁transferred	-11.5479
대기	-11.5479
▁세계로	-11.5479
▁나루	-11.548
▁KOF	-11.548
els	-11.5481
▁90%	-11.5482
▁husband	-11.5482
▁프로야구	-11.5483
Po	-11.5484
▁의원이	-11.5484
▁search	-11.5485
▁시신	-11.5485
▁리나	-11.5486
▁부근	-11.5487
/4	-11.5487
body	-11.5489
class	-11.5489
▁세월	-11.5491
▁밀도	-11.5491
NC	-11.5492
했어	-11.5492
▁레온	-11.5493
페르	-11.5493
▁kill	-11.5494
▁위해선	-11.5494
건담	-11.5495
▁테니스	-11.5496
▁Doctor	-11.5497
▁뜯어	-11.5497
내기	-11.5497
▁누르고	-11.5499
▁제목으로	-11.55
▁계곡	-11.5502
▁사라지는	-11.5502
▁갈라	-11.5502
▁constructed	-11.5502
▁보상을	-11.5503
▁일본이	-11.5503
▁continue	-11.5503
▁놀이	-11.5506
▁페르시아	-11.5507
▁이행	-11.5508
여행	-11.5509
▁심각	-11.5509
▁stay	-11.5509
▁깔끔하게	-11.551
mic	-11.5512
▁명으로	-11.5514
▁vol	-11.5514
▁레벨을	-11.5515
▁불만이	-11.5516
쾌	-11.5516
▁표현이	-11.5518
▁주인공으로	-11.5519
▁보여줄	-11.552
범죄	-11.5521
▁74	-11.5522
▁펴	-11.5522
▁PK	-11.5523
▁신세	-11.5525
▁앨범을	-11.5526
▁notable	-11.5526
▁Tony	-11.5527
▁끊기	-11.5527
▁60%	-11.5527
▁Yo	-11.5528
네이션	-11.5528
▁경력이	-11.5528
▁Dor	-11.5528
▁stand	-11.5529
▁만루	-11.553
▁대부분을	-11.553
▁treatment	-11.5531
▁McC	-11.5531
▁흥분	-11.5531
▁studied	-11.5532
▁이름이다	-11.5533
▁여기저기	-11.5534
▁다루고	-11.5536
▁프레이	-11.5536
▁피트	-11.5536
엔터테인먼트	-11.5538
▁경성	-11.5538
▁이때부터	-11.5541
▁Call	-11.5541
▁영화제	-11.5541
▁이벤트로	-11.5542
LC	-11.5542
▁석사	-11.5543
gra	-11.5544
쿤	-11.5544
▁맺고	-11.5544
▁적들	-11.5544
▁쿠바	-11.5545
▁문제의	-11.5545
▁불만	-11.5545
▁PA	-11.5545
모가	-11.5545
포로	-11.5545
▁gas	-11.5545
▁조용	-11.5546
▁나왔고	-11.5546
▁거짓말을	-11.5546
ガ	-11.5547
▁제이	-11.5548
▁로보	-11.5548
mal	-11.5549
▁국가가	-11.5549
▁사이코	-11.555
風	-11.555
▁코멘트	-11.5551
une	-11.5552
▁BL	-11.5554
五	-11.5554
▁토트넘	-11.5554
하길	-11.5555
▁타선	-11.5557
▁Junior	-11.5558
▁주문을	-11.5559
▁노려	-11.5559
▁대피	-11.5559
(10	-11.5559
▁본관	-11.5559
▁일단은	-11.556
▁cur	-11.556
▁좋았다	-11.556
▁screen	-11.5561
▁Dead	-11.5561
▁Country	-11.5562
▁재배	-11.5563
▁parish	-11.5563
▁강릉	-11.5563
▁대다수의	-11.5565
▁이빨	-11.5566
▁musicians	-11.5566
▁Taylor	-11.5568
비와	-11.5569
▁divided	-11.557
▁달인	-11.557
▁에피소드가	-11.5571
끈	-11.5571
▁토시	-11.5572
▁개최된	-11.5572
▁damage	-11.5573
▁자사	-11.5573
▁시작부터	-11.5575
▁미국이	-11.5575
zy	-11.5576
▁campus	-11.5577
▁지었다	-11.558
미스	-11.558
▁퇴	-11.5581
▁잘하는	-11.5581
▁프라이	-11.5581
진영	-11.5581
▁간단하게	-11.5582
▁근거로	-11.5584
▁Gun	-11.5584
부와	-11.5585
준이	-11.5585
▁아무튼	-11.5586
▁퍼포먼스	-11.5586
▁가요	-11.5586
집을	-11.5588
▁직무	-11.5589
▁pick	-11.5589
졌지만	-11.559
MB	-11.559
면에서	-11.5591
갓	-11.5593
▁일치	-11.5593
▁있을지	-11.5595
▁해에	-11.5596
▁true	-11.5596
보인다	-11.5598
▁이별	-11.5598
▁지속시간	-11.5599
▁둘러	-11.56
zer	-11.56
▁주어진	-11.56
내고	-11.5601
▁탕	-11.5601
광고	-11.5601
▁DS	-11.5602
▁awards	-11.5602
진과	-11.5602
▁hold	-11.5603
▁tvN	-11.5603
▁저렴한	-11.5603
일자	-11.5603
▁없기에	-11.5605
▁워프	-11.5605
▁(2008	-11.5605
무를	-11.5606
▁안무	-11.5606
▁무산	-11.5607
▁골프	-11.5607
▁않나	-11.5607
▁불사	-11.5608
노래	-11.5609
▁바디	-11.561
▁내에서도	-11.561
▁위와	-11.561
▁개업	-11.561
▁그중	-11.5611
관으로	-11.5613
▁Maria	-11.5614
▁안보	-11.5615
▁포유류	-11.5616
▁이동할	-11.5616
▁없어도	-11.5616
▁settlement	-11.5617
▁79	-11.5618
▁read	-11.5618
▁105	-11.562
조합	-11.5621
▁타이밍을	-11.5621
▁1904	-11.5622
민주	-11.5622
▁히가시	-11.5623
▁초과	-11.5623
▁정글러	-11.5624
푼	-11.5625
▁편의	-11.5625
▁그거	-11.5625
▁Wild	-11.5626
▁bomb	-11.5626
▁문이	-11.5627
▁않으니	-11.5628
Man	-11.5628
▁말이야	-11.5629
▁Modern	-11.563
▁충격적인	-11.563
▁products	-11.563
어는	-11.563
로봇	-11.5631
▁ru	-11.5632
▁재능을	-11.5632
▁사항은	-11.5632
▁그들	-11.5633
▁라인을	-11.5634
롯	-11.5635
▁늘어난다	-11.5635
▁방식이다	-11.5635
국을	-11.5635
▁여자아이	-11.5635
▁탈환	-11.5636
▁컴백	-11.5636
키아	-11.5637
▁disc	-11.5637
▁Studies	-11.5638
마트	-11.5638
▁입는다	-11.5639
▁봐서	-11.5639
▁서클	-11.5639
▁공학	-11.5639
▁예방	-11.564
▁Arm	-11.5641
▁블리자드	-11.5641
▁방식의	-11.5641
▁퍽	-11.5641
▁좀더	-11.5642
▁Kat	-11.5642
▁tr	-11.5642
手	-11.5643
▁빌딩	-11.5643
▁highly	-11.5643
▁쯤	-11.5643
gon	-11.5645
▁Mountain	-11.5645
▁살기	-11.5648
▁발견되었다	-11.5648
생산	-11.5648
itch	-11.5648
▁NHK	-11.5648
▁성향을	-11.5652
▁조지아	-11.5652
▁이익	-11.5655
▁생체	-11.5655
▁아냐	-11.5656
프가	-11.5657
ass	-11.5658
▁비판하는	-11.5659
▁Br	-11.5659
room	-11.566
▁괜찮아	-11.566
▁의도적으로	-11.566
뼈	-11.5663
▁당연	-11.5663
▁rules	-11.5663
und	-11.5665
▁원더	-11.5665
▁question	-11.5665
▁단발	-11.5665
▁점수가	-11.5666
▁읽	-11.5666
▁스포일러	-11.5668
▁흡혈귀	-11.5668
▁destroyed	-11.5669
키스	-11.567
토의	-11.567
▁적으로	-11.5672
▁곱	-11.5672
▁말해서	-11.5673
▁타인	-11.5677
▁읽고	-11.5677
력으로	-11.5678
▁개구리	-11.5678
▁Mont	-11.568
보이는	-11.5681
iff	-11.5681
▁일어나지	-11.5682
▁천하	-11.5684
▁Nations	-11.5685
▁airport	-11.5686
▁뻗	-11.5686
▁테이블	-11.5686
연승	-11.5687
▁플레이할	-11.5688
방에	-11.5688
▁Hard	-11.5689
▁애인	-11.569
▁로비	-11.5691
▁approach	-11.5691
▁EBS	-11.5692
▁상금	-11.5692
▁병역	-11.5693
이름	-11.5693
▁한국과	-11.5694
~!	-11.5695
▁아스날	-11.5698
nan	-11.5698
팀은	-11.5699
편에	-11.57
▁알았	-11.57
▁요코하마	-11.57
교수	-11.5701
▁과시	-11.5701
타스	-11.5701
▁거치	-11.5702
▁다닐	-11.5703
▁가능하기	-11.5703
OT	-11.5703
▁마음의	-11.5703
▁독백	-11.5704
▁없어졌다	-11.5704
▁(2018	-11.5705
▁공부를	-11.5706
▁운행하는	-11.5706
▁양이	-11.5708
▁센스	-11.5708
▁고발	-11.571
▁데모	-11.5711
▁사무소	-11.5711
lly	-11.5712
먹는	-11.5712
▁피어	-11.5712
▁(7	-11.5713
▁진행할	-11.5714
▁등장해	-11.5715
▁본작	-11.5715
▁감옥에	-11.5716
▁알려준다	-11.5717
▁장착한	-11.5717
col	-11.5717
▁transfer	-11.5717
▁지위를	-11.5719
부산	-11.5721
▁붉은색	-11.5722
▁앗	-11.5723
▁정밀	-11.5723
▁외계	-11.5723
▁사이를	-11.5723
▁찰	-11.5723
▁주제로	-11.5724
ency	-11.5725
chen	-11.5727
▁담당하고	-11.5727
▁속도는	-11.5727
▁removed	-11.5727
(16	-11.5728
▁founder	-11.5729
버프	-11.5729
▁아르메니아	-11.5729
▁조치를	-11.5731
첨	-11.5732
у	-11.5733
▁짓고	-11.5734
fo	-11.5734
▁Ball	-11.5735
▁스마트	-11.5735
▁이리	-11.5736
▁숨을	-11.5736
▁갖다	-11.5736
▁몰살	-11.5737
▁편은	-11.5737
동과	-11.5737
▁잦은	-11.5739
▁퀵	-11.5739
▁출석	-11.574
워드	-11.574
▁Hockey	-11.574
▁찔러	-11.574
▁Command	-11.574
ians	-11.5741
▁보스가	-11.5741
▁boy	-11.5744
▁일으켰다	-11.5744
門	-11.5744
▁휴대폰	-11.5744
달라	-11.5746
▁담고	-11.5747
▁은폐	-11.5748
▁맞았	-11.5751
type	-11.5753
등으로	-11.5753
▁위험이	-11.5754
▁기술의	-11.5754
▁가르쳐	-11.5754
▁넉백	-11.5755
▁Lewis	-11.5755
▁자율	-11.5756
▁내며	-11.5756
band	-11.5757
▁tower	-11.5757
아르	-11.5758
▁연관	-11.5758
▁면도	-11.5759
랏	-11.5759
▁특화된	-11.5759
▁남았다	-11.5759
cent	-11.576
▁RE	-11.5762
book	-11.5762
▁만났다	-11.5762
▁덱에서	-11.5762
▁극중	-11.5765
▁고등	-11.5765
▁됐	-11.5766
달라는	-11.5767
▁ability	-11.5768
ld	-11.5769
년동안	-11.5769
▁디스플레이	-11.5771
▁점에	-11.5771
▁1%	-11.5772
▁옮기	-11.5772
▁신경쓰	-11.5772
▁administration	-11.5773
▁모르지만	-11.5775
▁유닛의	-11.5775
▁내야	-11.5776
벳	-11.5777
▁prominent	-11.5777
▁사법	-11.5777
▁승차	-11.5778
▁Ste	-11.5778
▁기간이	-11.5778
^	-11.5779
▁Get	-11.578
용이	-11.578
▁이라고	-11.578
▁-5	-11.5781
▁87	-11.5781
▁가구	-11.5781
▁시장에서	-11.5782
▁등극	-11.5782
▁높기	-11.5782
▁NA	-11.5782
aga	-11.5783
ington	-11.5783
▁유용	-11.5784
▁군수	-11.5785
▁사임	-11.5786
▁찾아오	-11.5786
▁맞추는	-11.5786
키의	-11.5786
조로	-11.5787
▁율	-11.5787
▁아픈	-11.5787
/5	-11.5788
▁한꺼번에	-11.5788
block	-11.5789
▁후술할	-11.5789
▁면허	-11.5792
▁저렇게	-11.5792
춤	-11.5793
▁복잡	-11.5794
▁(2006)	-11.5795
▁branch	-11.5796
들로부터	-11.5796
▁yet	-11.5799
乡	-11.5799
▁갈리	-11.58
▁성사	-11.5801
▁사망하였다	-11.5802
다르	-11.5802
▁continues	-11.5802
▁중구	-11.5803
▁잡는다	-11.5803
▁재앙	-11.5805
렸지만	-11.5806
м	-11.5807
바나	-11.5807
▁무료로	-11.5807
▁무언가를	-11.5808
▁숙소	-11.5809
▁털어	-11.5809
▁교과서	-11.5809
▁가족이	-11.5809
▁talk	-11.581
▁오만	-11.5811
▁전대	-11.5812
▁이현	-11.5815
킷	-11.5815
▁방사능	-11.5815
동의	-11.5816
▁편의점	-11.5817
철이	-11.5817
▁transport	-11.5818
▁카피	-11.5818
▁욕망	-11.5821
▁beat	-11.5821
▁천체	-11.5821
▁싱크로	-11.5822
▁실시간	-11.5822
▁silver	-11.5823
▁스트	-11.5823
민족	-11.5823
카리	-11.5825
▁주인공에게	-11.5826
▁비율	-11.5827
▁모노	-11.5829
▁winner	-11.5829
▁세계적으로	-11.5829
▁도쿄도	-11.5831
▁점검	-11.5831
Li	-11.5834
▁일정한	-11.5835
▁브루	-11.5835
▁Bus	-11.5837
▁죽이	-11.5837
▁퀴즈	-11.5837
첼	-11.584
거다	-11.5841
▁출동	-11.5841
▁버전의	-11.5842
sey	-11.5842
전공	-11.5843
▁그려져	-11.5843
▁왼손	-11.5845
▁대안	-11.5845
▁Mk	-11.5846
▁임명되었다	-11.5846
▁익히	-11.5847
ame	-11.5847
▁모종의	-11.5847
▁적들이	-11.5848
▁이름만	-11.5848
▁아메리칸	-11.5848
▁세금	-11.5848
▁연령	-11.585
▁ba	-11.5851
트론	-11.5851
▁secret	-11.5851
▁차지한	-11.5851
▁벙커	-11.5852
ular	-11.5852
▁샤를	-11.5852
보라	-11.5853
▁표정이	-11.5854
▁점멸	-11.5855
▁되었으나	-11.5855
▁덧붙여	-11.5856
▁아버지인	-11.5857
point	-11.5857
르가	-11.5858
▁소득	-11.5858
상대	-11.5859
▁스나이퍼	-11.5859
news	-11.586
▁파멸	-11.5863
▁능력과	-11.5863
▁라틴어	-11.5863
▁이뤄	-11.5864
▁동해	-11.5864
▁상술한	-11.5865
▁이름과	-11.5865
▁겪은	-11.5865
채로	-11.5866
화학	-11.5866
▁programme	-11.5868
▁유해	-11.5869
uck	-11.587
合	-11.587
▁어째서	-11.587
▁시마	-11.5871
▁간판	-11.5872
▁생김새	-11.5874
전선	-11.5874
▁암컷	-11.5875
▁부천	-11.5878
▁어째서인지	-11.5879
▁씹	-11.588
▁개념을	-11.588
▁배울	-11.5882
▁Report	-11.5883
이었기에	-11.5883
보가	-11.5884
▁어머니를	-11.5885
▁카스	-11.5886
▁화폐	-11.5886
▁Champions	-11.5887
▁봤다	-11.5888
▁틀린	-11.5889
▁Last	-11.5889
▁수천	-11.5892
▁저글링	-11.5893
▁내용으로	-11.5893
▁헐	-11.5893
[...]
